#version: 0.2 - Trained by `huggingface/tokenizers`
a n
t a
q a
c h
l l
u n
a y
p i
i n
a q
Ġ k
un a
i s
m a
a s
a r
k una
m i
Ġ s
w a
y u
Ġ p
t i
Ġ ll
r i
k u
m an
Ġ h
y a
Ġll aq
Ġ (
ch a
p a
is qa
Ã ±
Ġllaq ta
ll a
r u
Ġ wa
Ġ n
u k
k a
Ġs u
q an
Ġ q
t u
Ġk a
Ġ P
Ġn isqa
u s
w an
r a
k i
Ġ A
Ġ ch
i mi
Ġ ma
Ġ C
Ġ S
Ġwa ta
Ġ r
Ġ d
Ġh uk
a m
a p
u y
Ġ M
man ta
ru w
u r
Ġs imi
i q
Ġ m
Ġnisqa qa
yu q
u l
Ġllaqta pi
u q
Ġ 1
o n
Ġma ma
n in
Ġ a
Ġ ri
Ġr una
Ġ Ã±
i ll
Ġsu yu
e r
ch i
Ġp a
Ġk i
Ġ K
Ġ w
p as
Ġ i
is t
e n
Ġ H
an qa
in a
Ġ L
e s
Ġ "
in s
Ġsimi pi
h i
Ġ -
a w
ist ri
o s
Ġ U
p aq
a l
Ġ Q
ruw ins
Ġk ay
Ġ B
ruwins ya
as ti
ar qan
Ġ W
Ġp ruwinsya
Ġ R
Ġd e
Ġ I
k un
ta q
Ġ qa
a t
q u
asti lla
ĠC h
Ġ 2
ĠÃ± iq
o r
an a
ch u
â Ģ
Ġ T
ku y
istri tu
Ġ ya
ch ay
as qa
ĠÃ±iq in
l i
lla pi
Ġsu ti
Ġd istritu
t in
s i
Ġk arqan
ĠP i
Ġwata pi
Ġk an
y an
kuna ta
m ay
Ġ t
Ġsuyu pi
cha w
e l
Ġ man
qa r
ar i
Ġsuti yuq
Ġki llapi
u yu
ka ma
ill qa
Ġ J
ap aq
C h
t o
Ġch ay
ul i
k astilla
Ġ D
r qan
Ġq h
Ġllaqta m
u ri
c i
Ġi cha
a ma
us qa
Ġ G
a wa
0 0
Ġ Y
Ġq illqa
Ã ¡
qar isqa
Ġ ta
w s
Ã Ń
Ġllaq t
Ġ1 9
am k
o m
Ġpa qarisqa
Ġ as
in d
Ġ ru
" )
l a
i p
Ġka ws
at un
ĠU ma
) .
Ġ Ċ
ĠPi ruw
Ġ u
a ch
an ta
ay uq
r o
Ġpruwinsya pi
Ġqa ll
aq ta
ch asqa
u cha
Ġ ay
Ġruna kuna
k ch
n i
Ġ âĢ
d i
ar yu
Ã ³
yan u
Ġwa Ã±
kuna pi
Ġka l
Ġ yu
ind aryu
Ġk aq
Ġkal indaryu
Ġ pi
1 9
s qa
a ll
k an
r ay
Ġll amk
Ġman a
Ġ N
ch wa
Ġm un
ta m
ch is
Ġ mi
p uy
i m
r e
k ay
p u
Ã ©
Ġpa cha
Ġruna qa
d o
w ya
ĠA n
Ġa ll
Ġ E
ll u
Ġllaqt anqa
c o
i r
Ã± a
c a
Ġ ti
Ġ tu
t an
u ch
i k
Ġllaqta yuq
Ġqall ar
is ip
as i
Ġ F
u m
on s
Ġ( *
Ġh awa
chi k
isip yu
ar a
d a
Ġ 3
č Ċ
in ki
o l
) ,
Ġas wan
t e
kuna qa
w i
Ġh atun
h a
h u
Ġri kch
Ġqallar isqa
Ġ wan
Ġki ti
hi chwa
ay mi
chaw wan
R una
Ġw i
ll an
ap uy
Ġm ay
ĠwaÃ± usqa
Ġkalindaryu kama
ti g
om m
is pa
uri ya
p ay
omm ons
tig uriya
Ġ j
Ġka ma
un chaw
Ġwata qa
kun ayuq
r an
Ġh ina
ar mi
ĠS an
Ġ V
ay ta
s pa
u ti
pi qa
Ã³ n
pa m
uli wya
Ġmun isipyu
h as
ul yanu
d ya
ĠÃ± aw
Ġi ma
C ommons
u ll
b r
kunayuq mi
l u
g t
l t
Ġ ur
Ġu ma
Ġwata m
chi y
ĠL i
ul ti
puy nin
ĠM a
t un
Ġq ucha
Ġka puynin
Ġm ulti
s a
mi dya
an i
Ġ l
Ġmulti midya
Ġkapuynin kunayuqmi
n a
as pa
Ġ _
ĠH ulyanu
Ġ /
ch aq
w ay
p an
g u
Ġall in
ĠB uliwya
Ġri may
u Ã±
Ġp uk
Ġ in
Ġ is
Ġ an
has ku
Ġch hasku
k in
ll i
ĠM ar
ku q
kuna m
uli ti
0 1
ĠCh ay
Ã ĳ
g o
v i
Ġ y
K ay
ĠW i
Ġk astilla
kuna p
r ka
un ka
Ġ1 8
un an
l e
ch in
i y
Ġ c
ay nin
ĠI n
ĠS uyu
a pa
Ġ ,
a k
as qan
Ġh ay
K a
L l
ĠS imi
Ġya chay
Ġ 5
Ġ cha
Ġyu ra
p e
ur in
Ġ ra
Ġri man
d e
ll aqta
ay a
pam pa
a cha
i ti
) "
an ku
Ġru r
Ġur qu
r is
Ġ O
Ġp uq
uk lla
a chay
Ġwa k
k wa
ll iq
a ta
un i
u t
Ġkaws ay
u lla
a c
an mi
i l
ch iq
ri ka
as h
m aq
uklla chasqa
Ġqh apaq
Ġ uy
ki pi
Ġn ispa
istri to
k h
Ġmay u
Ġk uti
Ġr aymi
Ġka ch
d ur
t er
aq mi
al a
Ġp us
un tu
Ka tiguriya
Ġkan tun
Ġdistritu m
Ġw armi
ĠD i
inki kuna
i w
Ġis kay
Ġpuq uy
nin mi
uliti ku
Ġya cha
h apaq
c e
Ġk ar
u e
Ġp ay
l an
ÃŃ a
Ġq hichwa
Ġwata manta
ku s
lla m
pi s
Ġa ti
q i
ch an
Ġqa rqan
Ã¡ n
Ġ2 00
Ġ 4
a ki
ĠC hi
Ġh am
Ġh in
Ġllaqta p
Ġa ma
ta qa
P i
kuna manta
di ya
p h
Ġw asi
p tin
ray ku
ĠL l
o q
Ġw ill
kipi diya
Ã º
Ġrunakuna m
Ã± ay
i ya
ĠR o
r in
Ġtu kuy
Ġ .
u ru
qa y
an t
Ġp ulitiku
Ġp ar
h ina
ni yuq
ĠâĢ İ
e c
ĠLi ma
ta wan
g a
man a
W i
a b
ĠWi kipidiya
kwa dur
u ra
S an
1 8
an aq
ri g
u tu
Ġay llu
Ġp uch
e t
llan wa
Ġch unka
ĠR i
ma ra
Ġti yan
y ki
ĠH ukllachasqa
Ġ" (
ar an
âĢ Ļ
ĠA mi
e d
Ġ un
lu ta
Ġ )
A n
Ġdistritu pi
Ġllaqt anmi
i a
l is
kunata m
q si
ch ka
Ãĳ aw
ĠAmi rika
y un
Ġwak llanwa
e z
" ,
Ġs i
l o
Ġpuch uk
ĠM ama
Ġ2 01
ch us
us qu
Ġta ki
untu r
Ġn i
Ġmama llaqta
2 00
Ġma rka
rig ur
ĠDi os
Ġw ar
U ma
v a
b er
Ġan cha
Ġri ku
z a
ci a
Ġm us
i o
Ġ 6
ĠA l
Ġqh aw
ĠG rigur
un ku
Ġin ti
Ġhay t
an an
ĠI kwadur
kuna wan
ĠA r
Ġpuk ll
un qa
Ġkiti lli
ĠQ hichwa
b a
ĠâĢ ł
an ka
ay tan
ĠJ es
u ta
urin kuna
ĠGrigur yanu
Ġch as
Ġka may
u ku
s h
Ġ ruw
Ġmi kh
e m
a qa
Ġqillqa kuna
y ta
Ġ la
Ġriman ku
Ġwata kama
T aytan
u an
Ġkaws aq
ĠK ay
â Ĩ
Ch ay
Ġw ay
os Ã©
Ġh anaq
i t
Ġri ma
Ġmi t
Ġi may
is qan
I n
Ġa w
ĠY achay
W armi
ku spa
ĠW a
s qan
Ġs ach
Ġ b
Ġka tiguriya
Ġll iw
Ġqh ulla
ĠMa man
pi n
kuna paq
lla taq
am pa
ĠP a
Ġk Ã±
Ġk us
ru s
ĠY ala
e ra
h in
ta pas
j a
Ġn in
ĠÃ±aw paq
D istrito
Ġ Â
Ġcha k
Ch urinkuna
ay ki
Ġqall ari
Ġ &
t h
Ġllaqta qa
b o
qa q
Ġ f
1 0
ch ina
kuna pas
am p
e g
an paq
A l
Ġwi Ã±
pi pas
Ġwata p
e y
Ġqillqa q
Ġas tawan
ĠâĢ ĵ
Ġpus aq
ru m
ĠQ hapaq
ĠP ar
Ġde l
in chi
ĠQ usqu
t on
ĠL a
ta l
ĠCh uq
ĠA s
Ġta r
Ġkach kan
ana kuy
kuna man
ay u
Ġkatiguriya pi
ll pa
Ġ uk
Ġ1 5
Ġ 7
Ġwi lla
ku rqan
ĠAn ti
y pi
or g
Ġnisqa pi
âĨ Ĳ
ĠK a
ĠM an
ĠPiruw pi
Ll aqta
ĠH atun
Ġqillqa sqa
Ġ( âĨĲ
Ġki lla
ap an
Ġ 9
er n
r qa
w ar
ta pi
Ġm una
Ġi Ã±
pa chawwan
ĠI s
ci Ã³n
ĠC ar
Runa kuna
ĠQ ull
d u
ĠE s
Ġpuk yu
u i
1 5
Ġ 8
Ġa chka
I I
may u
ch Ã¡
e j
Ġchak ra
y ay
S imi
Ġsu tin
ĠA wya
Ġs ay
Ġka p
Ġmarka pi
llam k
Wi Ã±ay
K ama
1 2
Ġ1 7
Ġkamay uq
un t
ci on
Ġaswan ta
ki y
1 7
u ma
ch isqa
ari y
g en
ri y
an k
Ġk anqa
ÃŃ n
ĠK i
Ġpar ki
q uy
ĠM i
un u
wi ki
C hi
as uyu
ill ay
Ġp uri
1 6
ill ka
in k
Ġta ri
o b
is pi
Ġpi luta
ĠS anta
is hi
an o
ll ur
Ġh ap
Ġwakllanwa tam
ĠLl aqta
m un
ni y
al i
Ġuma lliq
Ġ ap
Ġq hi
Ġurqu m
Ġpukyu ta
Ġ( "
er o
as ka
manta m
p ar
Ġtiyan ku
Simi kuna
1 4
b ya
ĠA ma
M ama
I s
a wan
ĠUma lliq
1 3
Ġyu pay
ĠSuyu kuna
) :
li man
r q
Ll amk
Ġya ku
Ġq ull
Ġ aran
ach kan
2 0
Ġmunisipyu pi
iya pu
b li
is k
Ġya chaq
t ina
Ġman am
ap usqa
uy llur
Ġ19 9
Ġuy wa
Ġri maq
ur qan
kun an
ĠR una
i c
u c
h o
r aq
ĠH u
A y
a kuy
en s
Ġaran way
is ta
Ġ anta
H awa
Ġ g
i ka
Ġqallari rqan
Ġti k
pa ta
ar u
h un
w asi
spa Ã±a
Ġchay manta
yuq mi
ar aq
Ġqucha manta
v e
Ġruna m
u ya
all qa
Ġ [
v in
Ġnisqa kunaqa
t t
T ayta
Ġ o
Ġ1 2
i ta
Ġkaws achkan
pu ra
pi m
in chay
Ġ1 4
ku chu
ĠU ru
Ġ yan
ra l
u el
at in
Ġch i
da d
un chay
u is
ris tu
Ġpuchuk arqan
Ġ19 8
q s
v er
Ġmit rum
R i
Kama sqa
ch ana
00 0
Ġ Z
kunata pas
ishi ku
h an
Ġk m
v o
ĠS untur
ĠR e
kch unqa
nin ta
Ġpacha pi
Ġqhaw ay
r es
uliti ka
taq mi
ĠAnti kunapi
Ġk uyu
Ġma s
Ġk asqan
ĠPi kchunqa
W a
p o
u w
ll ay
Ġwa t
A s
ĠChuq iyapu
ha ta
i lla
si ya
ĠJ osÃ©
p un
an chay
ĠYala pi
Ġsuyu m
ur aq
Ġrunakuna p
Ġh uÃ±
in g
Ġ1 6
ĠC o
Ġs aq
ur ay
Ë Ĳ
q o
a g
Ġhina llataq
Pi ruw
Ġkawsachkan ku
en a
Ġ3 1
Ġwa ll
ĠK ristu
Ġ1 0
Ġr is
ĠA y
Ġki kin
anqa man
Ġrur aq
ĠW ay
H uk
e o
di a
Ġ 0
Ġsimi tam
Q hapaq
a mi
Ġkama chi
t ro
pa cha
Ġlliw manta
Ġp h
N A
an d
Ġkama chiy
Ġ qan
Ġham pi
2 01
ĠG u
Ġkalindaryu yuq
ĠQull asuyu
. ,
P ulitika
Ġtu ku
Ġq uyllur
ĠS e
m p
ch kan
b i
Ġmus uq
Y achay
h ar
d or
Ġruna s
Ġrimay kuna
k aq
Ġ19 7
Ġni rqan
Ġhuk chasqa
ta y
Ġllaqtapi qa
Ġqillqa sqan
chu a
Ġkar u
ch ar
m o
ki chis
ll o
Ġllaqta kuna
ĠP er
D istritu
Ġs iq
us uq
Ġicha qa
as un
ĠM o
us pa
as a
kuy nin
ĠS i
Ġki m
lis h
s uyu
ĠÃ±aw pan
ĠKristu p
ri a
Ġ1 3
ĠD yu
ĠMar ÃŃa
qa ri
. &
5 0
K unan
a ti
tal ya
aw i
asti llan
Ġ :
p uni
Ġkar qa
r qu
in o
tu wa
u mi
Ġp hata
Ġa tin
ir wa
W ik
Ġ2 0
ro vin
ed ro
u d
Ġk unan
19 8
Ġ li
unchaw ninmi
19 9
ĠF ran
in ku
Ġwarmi qa
Ġa k
Ġw aq
kun aq
w w
astillan u
ĠP ay
a pi
ĠQ ucha
Ġ19 6
Ġti y
w ru
Ġ en
Ġphata kuna
Ġqillqa ypi
a ku
ay ku
u pa
Ġw as
h e
Ġkan ku
pe ci
utu qsi
hin tina
qa sh
ĠI spaÃ±a
chis qan
a j
p us
Ġris irwa
Ã© s
Ġall pa
m uq
ĠJ uan
ĠM ishiku
Ġtar puy
ar k
1 1
ĠIn ka
Ġri t
Ġpuchuk aynin
ĠA ri
li a
Ġqull qi
s ach
Ġay mara
n e
Ġwa wa
qu e
is i
Ġch ani
Ġl aya
Ġ19 4
Ġun quy
ta ray
rovin cia
u kuy
Ġwata kuna
3 0
ĠL e
ĠK astillanu
ĠR an
Ġri qs
ĠL o
u en
Ġru ru
Ġchas k
Ġkan taray
ĠN a
ue chua
Ġaw qaq
Wik is
qa qa
anku paq
unchaw qa
Ġi lla
Ġqa ti
liman ya
an tin
ta j
ĠE l
ll in
à ¤
19 6
ĠâĢ ¢
Ġsi tuwa
un in
A ma
uk a
Ãĳaw paq
Ġ Ãĳ
en to
u er
ĠD istrito
P a
Â ł
ĠC or
Ġs apa
on a
ĠÃ±aw pa
Ġicha taq
Ġkalindaryu pi
ĠB ar
Ġkaq manta
uy chi
ĠB r
ĠBuliwya pi
peci es
Ġ es
aq u
Ġll ank
qi pa
Ġrur asqa
Ġhin aspa
anqa yuqmi
Wikis pecies
z o
Ġsu t
Ġpuchukaynin kama
ana kuna
ĠM ari
Ã© n
pas qa
Ġkan ayuq
ant Ã³n
l as
Ġuk hu
in i
ti a
ĠP unu
apusqa kuna
Ġ Ð
man u
M ar
Ê ¼
Ġs inchi
Ġtaki q
A r
c is
Ġch un
ĠW an
asi l
c k
P ar
S apaq
Ġpruwinsya m
i cha
os a
ray nin
L a
19 7
e a
Ġ X
u chu
v ar
âĢ ı
w illka
an in
Ġruna p
Ġsuyu p
Ġuy ar
ci o
ku ta
ayki paq
ll un
g ar
L i
l os
Ġr e
ĠU rin
ton io
Ġhin am
C H
is a
ri b
man i
Ġm aq
d r
m in
m uray
ĠS al
ill u
im in
d es
e i
e ri
aq kuna
Ġama chaq
ĠwiÃ± aq
ĠP as
Ġka ptin
ĠI talya
Ġk ash
Ġk as
. .
p s
y lla
Ġman araq
f i
p hi
M an
Ġk aspa
Ġch ur
Ġpa qari
2 5
ĠH uk
m u
Ġ1 1
ĠN i
ru mayu
Ġkay nin
wi tu
Ġchani yuq
ar qa
ru wan
ik in
ĠS a
Ġra kiy
k e
k ha
Ġpi si
kus qan
u g
u j
Ġwa kin
ch qa
Ġq ill
Ġkalindaryukama taq
3 1
Ġ v
Ġk un
Ġya puy
aska chawwan
H atun
Ġinti chawwan
ĠA ya
Ġwakllanwa tapi
uychi chawwan
2 8
a tu
Ġkilla chawwan
M un
ÃŃ o
wa ta
Ġati pachawwan
Ġquyllur chawwan
Al ma
Ġpa w
Ġilla pachawwan
ĠN e
ĠPer Ãº
K aymi
anqa manta
i ru
ri way
ĠM on
2 7
ar do
Ġwill ay
t es
Ġay muray
Ġwa qa
kun ku
Ġman an
Ġwar ay
ĠÂ ¿
Ġ ),
anqa kuna
âĢ ¡
Ġchay qa
l es
u p
Ġ ).
K uyu
t or
ĠAn qash
ĠâĢİ âĢ¡
Ġchas ki
Ġkim sa
Ġkiti pi
an pi
is h
ĠA p
ĠK un
ĠJ o
ni yki
ink isqa
u pi
Ġta yta
ĠP edro
ur ku
Ġ19 5
Ġpaw qar
m uy
ĠJ e
s ay
Ġ2 4
2 4
Ð ¸
Ġh unt
ama rka
Ġ2 8
q un
Ġs allqa
tu y
âĢ İ
ta s
aynin pi
ĠK rus
Ġ ;
ku sqa
Ġay riway
ch o
el a
2 6
cion al
Ã± iq
Ġs un
man mi
qu wiki
d en
Ġtik ray
Ġru ran
Ġqhi paq
k o
manta qa
Ay llu
J osÃ©
un wa
Ġch in
ĠD e
ruwan u
M ayu
Ġll apan
ka may
Ġsu maq
Ġ Ã
T ik
us ta
ĠA limanya
am pi
H ukllachasqa
ĠB o
Ġt uk
Ġka ll
ĠQ illqa
ĠAri qipa
ĠM ana
T A
Ġruna kunata
pu bli
ĠSuntur nin
ĠRan siya
ĠH in
r ist
an do
wan mi
Ġsimi manta
ĠDios pa
ĠT ayta
2 9
a vi
inki muq
Ġtari pay
an g
Ġru mi
chis pa
Ġllaqta kunapi
Ġyu yay
ber to
Ġma ter
Ġsimi ta
Ġmun an
Ġm uyu
aki y
o ra
Ġ *
ri gu
Ġpukll aqmi
2 1
B ac
W ay
Ð °
Ġ el
ay kuna
Ġa l
Ġ3 0
Distritu piqa
Ġ ind
ama rq
19 5
Ġqillqaq mi
ĠKi chwa
r y
Ġay amarq
ris ti
ya pi
Ġ2 5
Ġs untur
Ġwa llapi
ch uy
on g
gu el
ul um
ĠAr hintina
ĠQucha pampa
Mun isipyu
Ġqati q
k ar
aq ucha
ma s
ra lan
ĠChi li
Ã ¼
ĠAn tonio
Ġallin ta
Ġyan ap
ĠU n
Ġati y
in e
ch e
Ã± i
2 3
t s
á ĥ
r isqa
tia go
ĠW anka
M a
Ġyura m
Ġll apa
Ġruraq pa
publi ka
A Y
Ġwa ki
ĠP acha
aw pi
Ġrunas imi
S uti
kunata qa
Ġchay pi
19 4
Ġtikray kuna
u llu
chi rqan
s on
Ġn iy
ĠAma rumayu
ce ra
ar in
ri o
iti kuna
ĠW ar
inkimuq kuna
K ikin
ma rka
cha qa
en i
Ġ2 3
ash amarka
2 2
Ġ Î
ĠS uÃ±
f or
ĠBr asil
a lla
Ġmamallaqta pi
Ã± am
Ġ chaw
ĠM ay
Ġk asqa
uy an
ĠU ni
Ġta wa
u qa
Ġ ar
ĠA m
ol o
ĠS o
kuy ta
C antÃ³n
Â ²
ay mara
t ra
Ġya war
Ġll uq
am ay
am b
Ġpukll aq
Ayllu paq
Ġrunakuna qa
hina taq
m en
Ġ e
t r
Ġj ina
tro cera
Bac trocera
Yachay wasi
c ar
ari o
unchaw pi
ĠU q
ob el
t ins
K U
ĠP o
a kuna
Ġll im
Ġsimi kunatam
re z
ĠY aw
Ãĳaw ra
wru pa
ĠC ol
ĠG ar
Ġriman apaq
Ġch anin
akuy kuna
Ġak ll
S i
Ġsu q
Ġ2 6
kan tin
Ġj isk
anan kuna
un ta
Ġl os
A Q
Ġru wan
S anta
aq tin
ĠR a
Ġwi Ã±ay
A llpa
tu ra
Ġllaqt an
Is kay
cis co
Ġru wa
Ġpi n
Ġqucha m
H u
e li
tu s
qu cha
Kuyu ylla
M ayninpi
ri d
manta pas
Ġriku riy
ĠRe publika
Q hichwa
Ġwa qay
e b
g i
kama m
ant anakuy
arqan ku
Ġu taq
kuna taq
Ġru ray
s e
ĠA le
ĠLl amk
T iy
lla ta
Ġ2 9
uli ku
Ġs an
ĠF ern
t is
ĠS u
Ġ2 2
in lish
Ġ2 7
ulum bya
D i
Ġn ina
Ġn ir
c os
Ġpruwinsya p
Ġ2 1
Ġpacha kwa
ĠB i
ĠY u
Tik raynin
Q ucha
m pi
Ġ19 3
chin apaq
Ġp ampa
Ġriqs isqa
us i
Ã¡ s
ver si
e ta
Ã ¶
c al
l or
im sa
t os
Ġn isqan
c as
nin qa
Ġc on
gu a
Î ±
Ġsuyu kuna
M i
Ġri qsi
ĠRo manu
o qa
ĠP h
Ġind i
r as
Ġqh ari
) ;
org e
r ra
Ġy ana
ki lla
anqa qa
Ġchun kantin
d on
g el
Pi luta
A li
qan ku
Ġnisqa taq
Ð ¾
Ġkanqa ku
. [
ĠA ir
Ġkus i
A N
M I
Ġay llun
Ġs in
ol ÃŃ
nin tin
ĠQ ispi
E l
Ġs ap
Ġtaki chaq
Ġch anta
ul a
h n
u b
Ġ Ø
ĠP e
Î ¿
Ġl atin
ĠRi mana
Ġkap uq
ri ya
ĠwaÃ± u
Ġkama sqa
ch ej
Ġllaqta manta
ĠB e
R o
Ġya pasqa
Ġpi ruwanu
Tiy ay
I ma
nin kuna
d er
Ġch aq
Ġma Ã±a
Ġa ch
anqa pi
Ġpi s
ĠMa d
ĠiÃ± iy
ens e
b ur
ay i
ĠS h
M ana
Ġki chwa
uen os
Ġindi hina
B uliwya
j ina
n es
Â º
Ġti ya
Ġkuti tam
P ruwinsya
f a
ĠCh unwa
j o
ch as
Ġwata kunaqa
Ġkan man
ĠMi guel
ĠAir es
Ġya qa
h ay
ĠIs kay
Q all
t ÃŃn
ma r
Ã± usqa
ill i
Ġchunka wata
Ġwas in
Ġh ark
ĠÃ± ak
C ar
as ta
ĠT o
Ã «
kuna pa
uÃ± i
Ġchaski rqan
m pa
in cha
K astilla
a d
âĢ ĵ
Ġwar anqa
f o
ĠA b
ĠK ashamarka
8 0
K an
Ġka llpa
ĠC re
ĠT i
Ġtiy aq
r os
as pi
Ã± or
l in
ta d
Ġsu yun
Ġsuti chasqa
qu ia
ĠSuÃ± ay
ĠL uis
all ka
ĠV i
vi a
ĠKa tiguriya
Ġwall tay
Ġyacha chiq
Ġama chasqa
Ġs on
Ġh uch
ĠÃ± a
ĠQ u
n o
ĠH unin
ĠJes usqa
an chis
la ti
ĠPiruw pa
Ġpi chqa
Munisipyu piqa
w as
ĠI wrupa
tam ento
w k
ÃŃ s
4 00
l atin
Ġyacha chiy
ĠRo ma
ĠDyu s
pi o
wan pas
Ġ200 1
ĠWanka willka
Ġm in
ĠV al
y s
tin pi
Ġsuq ta
w ri
en te
li ku
s is
u wa
us a
ĠLi c
ar d
ĠP al
ĠT e
Ġra ki
" .
un chik
ĠC ommons
ĠCh inchay
Ġmay um
ĠAya kuchu
J uan
us aq
on i
ĠE n
pe dia
ĠNa cional
4 0
ĠB a
ĠCar los
da e
Ri kch
an ti
or o
Ġkan anpaq
gen us
ĠP aw
ĠK ulumbya
os e
ĠW asi
Ġd i
Ġa hinataq
ĠMan uel
tu r
Ġr un
Ġimay mana
Ġcha ll
g ra
ĠK ama
Ġwilla kuna
ĠA w
ĠC a
era l
uyan chasqa
ĠC on
ĠR akiy
Ġwill asun
Ãĳaw pa
par tamento
As wan
Ġsaq illay
ti on
Ġchask inki
ĠLic ense
Ġqillqa taqa
â ĸ
ch un
Ch uq
Ġyu y
ati ve
Q usqu
uti on
ĠJes us
S har
ĠC as
man qa
Ġma r
Ġhukchasqa kuna
ĠCre ative
ro quia
Ġrur asqan
as pan
ĠA tt
] ]
an cha
en e
ĠB er
Ġwillasun aykipaq
e Ali
ta do
apuy paq
Ġphatakuna chÃ¡
rib ution
inkisqa pi
Mayu kuna
Ġsaqillay kamam
Shar eAli
ĠAtt ribution
ShareAli ke
pa j
uni ci
Ġp urin
ap as
o k
Ġn is
/ /
Ã ¤
Ġwatapi s
all p
ĠAn ta
ĠT ik
de z
ĠUmalliq nin
W aki
an chik
ĠSuyu kunapi
Ġumalliq nin
6 0
Ġp hu
er e
Ġya ch
ay ka
tam pu
ĠÃ±iq i
Ġpacha k
L li
im aq
Ġall i
chan apaq
q e
Ġta k
Ãº s
Ġo f
o c
: //
Ġp hi
Ġp ayta
at h
Ġs e
Ġq o
Ġpa chan
Ð µ
Ġp ur
nin pi
3 9
Ġmikh uq
Ġnin chik
Ġmaq anakuy
3 8
us an
Ġch im
ĠR am
Ġkap chiy
ĠU r
si m
Ġkasqan ta
kun qa
ĠMar kus
Ġruw ay
Ġmikh una
v en
Ġp ara
inki kunata
h am
y n
ĠM usuq
K i
P acha
ti y
ĠA ra
uer to
âĸ º
7 0
b e
ll is
ĠP rovincia
Ġpis qu
) âĢİ
3 5
ĠM at
lan d
g al
Ġp ro
Ġma ll
Ġ19 0
om in
Ġrima sqa
H ulyanu
U n
c u
Q illqa
ĠSan tiago
niy oq
ĠDyu spa
ww w
C o
Ġ vi
an s
Ġnisqa p
or d
ĠB uenos
ĠChay rayku
Ġkantun mi
pi taq
uri maq
F ran
Ð ²
anqa kunam
Ġkantun pi
lati rra
unici pio
S ay
r ÃŃ
t ana
Ġ =
in ti
ĠWan uku
ĠNe w
i g
ul u
ul un
or k
Ġimay na
i ra
Ġa pa
ĠU rqu
ĠLi pis
ĠÂ ·
ĠS il
ĠQ uechua
ĠT ukuy
3 6
ri q
ri rqan
ĠFran cisco
h uk
ĠÃ±iq pi
Ġkiti m
Ġra phi
Ġkama chiq
Ġway ra
us qan
] [
ĠP uk
pi ri
Pa qarisqa
s o
ta r
Ġg rigu
Ġqan chis
Ġkall pan
tt ps
N e
Ġk h
P rovincia
q in
Ġll um
lla pa
Ġq ispi
z ar
ma ma
uq u
el qa
ĠN obel
Ġchay mi
bo t
Ġtakiq mi
S A
ĠQ ar
K aw
e p
ĠM or
a llam
i pa
l ama
cha m
uÃ± uq
A ya
J o
S al
a ka
ĠLlaqta p
L L
ĠP or
en o
3 2
Ġk urku
Ã± an
Ġkay ta
kun anpaq
ĠMad rid
Ġchall wa
l am
Ġt anta
mana kuy
Qall ariy
P uk
c el
ll im
Ġka us
wan qa
Ġchay ta
ĠS imin
in is
Ġwa mani
tu q
Ġmas t
Ġd es
ĠCh aymi
Ġkan i
II I
m e
Ġ Ãĳawpaq
K un
an ay
ĠU ralan
3 4
Ġll ika
ki chu
Ġma wk
ik r
Ġllim ph
o ta
Î ½
man chu
Ġkaws aynin
inki mun
Ñ Ģ
Ġk hu
ĠwaÃ± uy
Ġmun ay
9 0
t re
Ġh un
Ġqh atu
Ġpuri q
Ġniy ta
tins uyu
ab lo
Ġsay wa
c ul
l aw
Ï Ĥ
ki q
ĠH uÃ±
lis ya
D e
Ġnisqa pas
Ġya chan
te ra
ber t
Ġqill qan
on z
ĠÃ ģ
Ġpuri y
W ar
d al
x i
ĠÃ± an
ĠR osa
Ġay cha
ĠV ic
anqaman qa
ĠJe ho
E s
o j
awan tinsuyu
ĠO r
M ay
Q ull
f f
cha kuy
paq pas
mun isipyu
Wa Ã±usqa
g an
ĠP ach
Ġkaws an
ĠChay manta
Ġqhi pa
I N
em p
ĠhuÃ± una
T ukuy
uri tu
qay ku
In ka
o d
ĠY ork
Ġj uk
KU NA
3 3
ĠM in
ĠN o
Par roquia
Ġkash an
Î ¹
in chik
aq na
ĠQ ui
Ġt antanakuy
Ġkaws anku
risti yanu
Ġkiti llim
ĠUni versi
y i
Ġs imin
Ġp as
ĠH o
li o
Ġkan ki
rqan ku
k as
ĠY uraq
Warmi kuna
olÃŃ var
g e
in qa
am pu
Ġpa lama
ĠCh awpi
p er
Y aw
hu a
sa pa
Ġukhu pi
U ru
Ġka th
Ġri kh
ĠH ay
ĠRuna llaqta
Li ma
s u
tan ka
Ġy aya
i pi
à ¦
ta ypi
ti lla
am ba
chi kun
iti qaqa
ĠAy mara
ĠSe Ã±or
a v
Ï ģ
Ġu ku
Ch inchay
Ġmus i
Ġwilla kuy
Ġnisqa manta
Ġm isk
paq mi
Ġkath uliku
w aq
Ð ½
Ġs ir
Ġh ur
chi ri
ĠL la
aw k
âĢ Ŀ
chiy ta
pus apusqa
e ll
Ġmi llay
Ġpay kunata
U rin
u z
Ġll aki
ĠK astilla
ĠY ana
ĠPa pam
us h
Ġpukll ay
ĠGar c
Ã± o
er ro
n aq
Ã± ul
Ġan ti
Ġkach un
Kan tun
omin go
A S
Q uechua
w in
ur qa
4 5
a man
t en
ĠH ina
Ġkan chu
Ġpi liku
lu b
ti ku
kunapi qa
Ġsun qu
Ð º
ka m
er es
ĠE du
[ [
Ġy ay
" ;
a kun
p ana
Â °
Ġpa ta
ĠMar tin
Ġwall taypi
4 7
b re
e v
g na
Ġnisqa ta
An ta
Ù Ħ
un g
Ġwa w
ĠA ws
Ġch e
Ġwasi pi
ĠJes Ãºs
ul o
ĠL imaq
tin mi
Ġ200 7
Ġk aqta
ri m
ap u
allam pa
9 9
U rqu
u paq
Ġh awan
ĠM ayu
qu i
ĠJ u
Ġqh e
ĠIn latirra
Ġh ucha
ĠR os
co l
Ġkama chin
Ġuk hun
I S
m pu
n u
Ġkan an
Ġ200 9
v an
ĠC amp
ĠL li
ĠW ak
ĠT or
Ġl as
ĠPar is
Ġtar inki
Ġsay witu
ch aspa
Ġchaw pi
4 6
an am
ay qa
Ġma si
ĠM en
Ġsuyu kunata
ĠO s
Ġpachakwa ta
llis inchi
nin ku
ari a
ÃŃ as
ĠAp urimaq
C O
d re
r un
an apaq
ĠQ an
qar qan
pay a
ll ana
ti du
ri manakuy
ĠR u
ĠJ an
ĠMar tÃŃn
ĠFern ando
c om
d el
Ġwa lla
Ġwata yuq
ĠG onz
ĠKa Ã±
t si
Ġka w
Ġh all
ina kuy
Ġpruwinsyapi pas
Ġ201 0
Ġ18 7
ĠK ar
ĠK unan
Ġpi pas
Ġwill ka
Ġuyar ina
Ġ ca
Ġ unan
in an
Ġhuk lla
ĠL os
kunapi m
Ġrimay ninmi
Ġway llu
Ï Ħ
Ġ uq
Ġwa mp
ĠÃ± uÃ±uq
en cia
um b
Ġumalliq ninmi
Ã £
in ta
Ġll ap
ku m
way a
ani el
Ġson qo
S uyu
i ch
qa s
Ġnisqa m
Ġsuyupi pas
co cha
Katiguriya kuna
kamay uq
ar ani
ru z
di o
ug us
, [
Y ana
Ġruna ta
âĢ ¢
ĠPi k
ll anta
er qa
Ġj atun
U N
ku ra
Ġchay am
ama r
inis uy
T i
Ġrimay mi
Ġham uq
Ġs h
en t
ĠD omingo
Ġu j
kunapi pas
Ã© r
Ġham ut
ĠBi bli
ĠGarc ÃŃa
os qo
ph rika
Ġimay ay
Ġchask isqa
avi d
I kwadur
ar is
ur o
ur un
at o
ĠV illa
Ġra p
an u
kuna s
ĠB eni
ĠI ma
Ġtu kurqan
Ġj unt
a chi
n am
w ra
ĠÃ± it
ĠH er
ĠIn ti
Ġ. &
Ġqh awa
Ġra k
ĠYu pay
d as
Ġ Ġ
as u
Ġq ura
Ġri kun
ĠW all
Ġ201 3
3 7
6 5
d os
g as
z i
ĠC rist
Ama chasqa
0 9
s imi
Ġ tin
m on
Ġp or
ĠC al
at mi
ĠT ar
wi ya
Ġur in
Ġwak cha
c es
ch ari
ĠL on
es t
ĠQ h
Ġkay mantam
icha ka
Di os
4 4
Ġnisqa wan
Ġsimi m
um aq
Ġyana pa
ku rqa
Ġm uru
at an
Llaqta kuna
ĠEs tado
ĠHu wan
dr Ã©s
Ġuyarina kunatapas
o t
ta taq
un ki
Ġpa qar
ĠI sa
ĠJo hn
8 9
p urqan
Ø §
an da
Ġk unka
ĠM er
er ra
Ch unka
inisuy la
v al
Ð »
Ġsutiyuq qa
Ġkiti p
200 5
ch asqan
all e
Ġchi qa
4 9
Ġ us
man pas
Ġh ar
Ġch ura
ĠWi ki
Ġc om
Ġhay k
yki chis
ar ro
ĠR us
ĠJ a
M o
Å į
on e
ptin mi
yun mi
L la
p or
ĠL uritu
al es
el o
Ġtuk tu
à ¸
ar o
ti ca
Ġru ra
Ġmunisipyu piqa
ull i
ĠIn ter
aru chiri
ulun ya
8 5
k ta
ĠP ablo
Ġpa pa
Ġqa y
ĠJ uli
ĠG re
Ġpruwinsyapi qa
ĠwaÃ± uch
pe z
rayku chus
E n
ĠP ra
Ġpay kuna
amp usqa
ami lia
Â ¿
Ġq ol
ĠK aw
Ġta w
Ã¡n dez
ĠDios qa
olo g
Pruwinsya piqa
P h
k ash
t y
ĠA bya
ach iq
Ġhall ch
K iti
p si
Ġwan ku
Ġpus ampusqa
200 6
bur g
ĠIwrupa pi
Ġwa wan
uq ucha
kurqan ku
N i
Q usan
iq i
Ġj allp
e de
i b
Ġ '
uk un
uk si
ĠK u
An ti
K imsa
Q h
Ġk u
Ġk uru
ĠW as
a e
as co
cha kuq
wan a
ĠI I
Ġ18 9
Piruw pi
fa el
W an
ĠA g
ĠH ar
.. .
C on
L e
M usuq
o li
in apaq
kuy kuna
Ġu p
Ġima tapas
Ġtik si
Ġllimph iq
Ġsaywa chi
Ġk in
is qu
ĠM al
ĠV el
Ġruw asqa
Kantun kuna
4 1
y oq
ta chus
Ġs uni
Ġkus ka
Ġpin chi
ta wa
Ġq ue
Ġun u
Say witu
G u
R ÃŃo
i ma
n ey
Ġs as
ri ca
ĠL ampa
ĠJ ose
Ġmana Ã±a
ĠAn a
ut h
Ġq u
ap ay
ej o
cion es
b ar
t Ã¡
Î »
ya ku
ayuq mi
Ġwaqa chiq
Ġkichwa pi
4 8
A CH
r una
ku wan
ĠA qu
Ġpa tapi
ĠR ey
ĠT awantinsuyu
re c
gu ez
Ġ18 6
Ġancha ta
ĠKun ti
5 1
A R
n et
r en
r ina
aq i
ĠA phrika
Ġqa m
at e
ĠâĢ ľ
Ġun q
va do
ĠPach antin
0 7
i chana
Ġp unchaw
Ġr in
Ġm uch
Ġa pam
Ġsuyu qa
hi li
im o
ĠLon don
Ñ ģ
Ġruw asqan
Ġrimaq niyuq
L uis
ĠI chaqa
ĠT itiqaqa
chay uq
Ġman chay
Ġyachay kuna
lan tilla
Ġp uÃ±
Ġh an
Ġkay pi
") ,
ĠâĢ ĺ
Ġ200 8
Ġ201 8
ayki chis
Ġmin ist
ay tu
ĠW illka
Ġqa ra
Ġwatapi qa
Ġqillqa y
ĠF i
D E
kay ali
Ġkawsay kuq
ĠWa lla
Ã£ o
ll as
ka p
Ġka chi
ill an
). &
wiki pedia
ĠHay t
5 6
y ana
Ã± as
ĠK uyu
Ġrunakuna man
pan ku
Ġyura kunap
Ri may
Ġpinchi killa
4 3
an pa
Ġp un
ĠK h
istri tun
ĠG e
Ġtu llu
ara ta
Ġhin an
Ġayllun mi
Ġrap ra
0 6
c ri
Ġh unu
ĠC an
ĠSan to
ris ya
In s
eg i
8 8
s ut
Ġ co
Ġllaqta man
ĠP ampa
Ġan tanka
anan paq
b al
Ï ĥ
ĠSan tu
In ti
Ġtayta kura
0 4
P unku
Ã §
ri ti
ĠA pu
ruw ayi
Ġtakichaq mi
A w
o ma
Ġn o
es pi
Ġli w
ĠYaw yu
5 9
ay paq
in as
Ġw is
Ġw ir
ĠB olÃŃvar
Ġtu ta
ol e
Ãº n
dr ÃŃ
d yu
as yun
Ġpa tan
ĠB il
ĠT ari
ni a
ral es
Ġk ur
ti ma
Ġq elqa
Ġpa kay
Ch awpi
ir in
lan da
ĠAl f
p ur
ti tu
Ġyura kuna
Ġra kin
5 7
b amba
e go
Ġh ata
Ġd is
ill e
Ġpi rqa
unan paq
muy un
j e
q en
Ġk ura
is uyu
Ġd istritun
ĠM un
Ġri q
ĠY acha
ĠAl berto
b ro
d is
ku pi
ĠC ab
on es
piri tu
ĠP uerto
Ġri kuy
Ġu chuy
Ġpay qa
ec ta
Ġpusaq ninqa
Ġkamayuq nin
avi er
Ġwillka chasqa
drÃŃ guez
a u
m Ã¡n
s uy
Â »
pa k
Ġq un
Ġr o
Ġr anti
uq i
ĠCh urin
Ġta kin
all i
ha k
ayta s
Ġqucha pi
ĠSuyu pi
ĠAy llu
Ġtiya chkan
M unicipio
nin wan
aw ayi
ana da
Ġsuyupi qa
uri y
Ġwasi kuna
ber g
ĠÂ «
Ar hintina
ĠDe partamento
J es
U r
o p
u qan
ĠP P
er s
Ġas h
Ġin lish
Ġiskay niyuq
llin mi
Kiti lli
ĠP ur
ĠT aqna
ĠG ran
Ã³ ni
Ġriman a
Ġpay kunaqa
ĠNi hun
Ġakll asqa
A ra
P A
o f
z e
Ġ ispa
ch ez
Ġk ristiyanu
wa k
Ġch urin
ach isqa
Ã³ pez
aynin ta
Ġ200 6
ĠKi lla
ĠhuÃ± u
Ġkamachi kuy
m usuq
Ġll ak
ĠA f
am es
ĠL L
um un
Ġis qun
200 1
umi r
M awk
S e
Ġwa psi
ĠL Ã³pez
201 0
lor es
Ġp aqta
Ġch ull
ĠL or
ĠU SA
uch un
ik ar
Ġlluq si
ĠTik si
Ġwayllu kuq
0 3
7 8
ay pi
is ya
ĠK upa
ana ma
ĠT ru
kama qa
Ġ201 6
ĠAnti kuna
K A
f amilia
in t
ru p
Ġma chu
ĠW aruchiri
ĠN or
Ġmunisipyu kuna
Ġ200 5
h ttps
n an
una paq
ka chi
tu l
ĠPi luta
Ġqh awan
Ġyu raq
Ġhina qa
ĠÃ±aw i
ĠRam Ã³n
Ġ Ãĳawpa
ri pi
ku yu
Ġh u
Ġayllu manta
Ġchas kin
ĠPh atmi
ĠPaw lu
5 5
A p
Ã± u
ĠQ aqa
Ġkarqan ku
ĠG en
ĠRo drÃŃguez
Ġ201 4
ĠiÃ± uku
Ġkim s
illi am
Ġllum pa
ĠPik chu
R a
à ¥
ku manta
tu gal
Ġch hi
ĠC Ã¡
ĠM el
kun chu
va dor
Ġyupay kuna
Car los
f e
Ã ¨
Ä ģ
Ù ħ
ri ch
ri da
uk i
ĠP apa
ĠC om
Ġwata kunapi
am pam
nin manta
ĠÃ± isqa
do l
Ġan d
ĠWa llapi
Chi li
W awa
l ay
Ġ ill
ĠCh ar
chay ta
de o
ĠKa lla
w ash
Ñ ĩ
ĠT a
le z
gel es
ĠGonz Ã¡
0 8
K ar
s ha
Ġ ci
Ġqa rq
ĠT ur
anta sqa
Ġin ka
go v
Ġriman akuy
n g
p ari
s hi
ĠP ro
ra m
ĠA llpa
ĠS uy
ĠS ara
ĠR ÃŃo
ĠAn drÃ©s
A ri
c an
ĠS ay
ĠS im
Ġmi ll
ani yi
ĠRi o
ĠwiÃ± an
q h
Ø ¯
ar y
Ġa liman
ĠW inisuyla
kun mi
lis ta
ĠAs yapi
ĠUniversi dad
7 9
H allka
b ra
ku man
Ġh oq
lla wa
lla wan
Ġta y
Ġmana taq
ĠRi may
Man am
Ġchaw pin
B ar
e q
ku ptin
asqa kuna
Ġcha ki
200 8
ĠMari a
Ġpalama m
0 2
W anka
a kunam
b el
ri que
Ġas kha
ca ciÃ³n
ĠMa chu
San tiago
Ġyachaq si
ĠC antÃ³n
Ġm is
Ġi man
ĠB el
M ishiku
d un
in u
ar es
ĠCh unka
ol d
Ġj uch
Ġ201 1
8 1
e ru
f ec
k aspa
p usqa
y o
y asqa
aq cha
as ha
ĠW armi
Ġpacha manta
ter o
pun im
c on
ĠA ll
Ġr unan
ĠPi wra
ĠD avid
kan i
Ġin lisya
ĠRi kch
yki ta
Ġap ayka
Ġrun aq
Ġdistritun mi
0 5
Î º
Ġ æ
Ġk lub
ĠS Ã¡n
ill o
ĠT h
Ã±a chu
kus h
AQ TA
Qucha kuna
E S
g os
r on
Ù Ĭ
tu m
ĠM os
ĠB ern
ĠCh ak
Ġmi ra
ĠJes uspa
ĠSÃ¡n chez
Ġh a
uq ta
ĠG er
Ġmunisipyu p
ac ul
Ġmall kiq
Aya kuchu
) &
D ip
L o
M at
aq ha
ĠP Ã©
chi kuy
Ġyachay wasi
Ġiskay nintin
gna cio
tima la
C or
P edro
r aqmi
ĠA d
Ġch inchay
Ġm u
kun man
ĠY al
4 2
s en
t ri
w e
ar ina
ti co
Ġma ki
Ġa j
hi ku
at ri
Ġkiti llinmi
Ġun ay
T awa
ch en
ay niy
ĠC ruz
Ġ3 6
Ġima raykuchus
ĠMar ka
Wi ki
Ġdistritupi pas
Ġkus a
De partamento
Q ar
l d
an te
ĠA ugus
Ġd ere
Ġsuyu kunapi
ĠB ra
Ġc as
Ġyacha chisqan
Ġ201 5
ĠYu pan
T aki
m us
ra ta
paq qa
to ria
ulla w
Ġkitilli pi
uel a
zo o
Ġqill qarqan
ĠRa fael
acul tad
ar ispa
man tan
ru ru
ĠA t
ĠW at
Ġrur ana
Ġnin ku
ĠIspaÃ±a pi
tins i
Ġnir qa
Lli w
ath uliku
sim uyu
Ġsir k
8 6
I may
L ag
g n
ya p
Ġsimi kuna
ist e
Ġchay rayku
uch Ã¡
ĠF er
chin am
ĠChuq ichaka
Ġwilla Ã±iq
Ġhun uchÃ¡
Y uraq
d y
q on
Ġ or
pi ta
Ġwa tan
chu ku
ara Ã±
Ġuy ari
pun in
tuy is
ĠIskay lla
Ġqol qe
ĠGonzÃ¡ lez
Ġ emp
Ã± ez
chi kuq
ĠCh anka
Ch aymi
ĠwaÃ± urqan
Ġwi ch
Ġway na
Ġach kha
Ins ecta
7 6
R an
c tor
ill aymi
ĠW al
Ġyacha chin
em po
isqan manta
kuynin pi
Ġninchik mi
Dip tera
B a
K I
N obel
P as
P ulitiku
R ur
_ _
a kuq
k asqa
cha ta
qan chi
Ġma kin
Ġri k
ons o
Ġkama risqa
Ġhin aspan
ph riti
Ġmikh un
ĠPas qu
ĠTe phriti
ĠÃ±iqi mantam
Kaw say
ĠTephriti dae
B r
J e
N o
S h
a ca
m uyu
t ral
ki m
ĠC ama
ĠI II
ĠCh urinkuna
Ġt he
Ġj ap
Ġkama china
chin cha
Ġmuna sqan
Ġhampi kamayuq
ĠYupay kuna
u wi
Î µ
yu s
ĠC i
on al
ci al
do za
Ġkama chisqan
Ġpulitiku pas
18 9
ed ra
ĠJes usta
uta ta
âĨ ĳ
A le
d istrito
ll aq
ka ptin
Ġmay qin
ĠiÃ± u
ĠKi tu
Ġap u
ĠPe ru
U NA
j u
p en
ĠU ruwayi
ĠB u
Ġman cha
Ġti qsi
Ġsi chus
ĠCar men
Ġkap un
ei ro
Ġliw rum
8 2
A qu
P al
an as
ti llo
ri kch
ĠL uk
os o
Ġkan mi
ĠJ ac
Ġyura kunam
Ġtuku kun
Ġispa Ã±ul
T ar
e to
w ara
un da
Ġs ar
ĠS ar
ĠK uraq
Ġpacha man
Ġhina ta
le y
ĠChi k
Ġriku sqa
ĠPay qa
Ġkaptin mi
U y
u ca
ĠM e
ĠQ uta
qu ez
ĠT antanakuy
ĠG i
ĠG o
re ra
Ġan ka
ĠMama llaqta
Ġaw qa
ĠPay kunaqa
Ġpatan pi
P ay
yu pi
Ġd a
ill era
ĠK an
Ġw ik
to l
ĠE d
um pi
Ġkar an
ĠMon te
ĠJeho v
ĠMin ist
5 2
I spaÃ±a
Q A
b le
ar e
ĠB us
ĠW ill
ĠI ka
ĠCh aq
tin qa
Ġt h
ĠD is
iti pi
and ro
Ġmaq ana
ĠFern Ã¡ndez
Ð¾ Ð²
. )
7 1
un qu
ka ta
ĠP uka
ĠP ulunya
Ġa t
ĠL uc
âĢ ²
Ġima ta
Ġrimay kunap
utu ra
umun ista
5 4
J orge
P ro
Y acha
g rigu
Ġll oq
us illu
ĠS hi
ĠY aku
pay ki
Ġl istritu
Ġpuk a
Ġrima sqan
mp ur
k hu
m b
s in
ta sa
ĠS aw
ĠH awa
ĠB al
Ġwatapi m
ĠD aniel
Ã³ r
dur as
Ġham un
ĠHin aspa
Ġchim pa
Qillqa q
Ġpiliku lam
ĠPÃ© rez
n er
ch arqan
ĠP un
wan chik
ĠU kayali
Ġu t
Ġj ach
ĠiÃ± iq
ea e
Ã±iq iq
Ġrunasimi pi
Ġemp res
Ì ģ
in tu
ara bya
Ġkar um
Ġpukll aykuna
Chay manta
ĠAs wan
Ġchin ka
ĠBrasil pi
Ġamachasqa m
A ll
i ki
ll asqa
om o
Ġ201 2
" &
. "
8 7
s ya
Ġma Ã±
ĠM anan
Ġqa r
Ġchay lla
Ġmikh unchik
Ġwaqa china
A NA
C ol
u Ã±a
w is
y ku
is cal
Ġhuk kunapas
Ġkitilli piqa
bo ok
Ġ199 0
ĠØ §
ĠhuÃ±una kuy
mpur asu
m aqta
kuna lla
ri co
Ġka maq
chi rqa
ĠG ra
lliq i
ĠMaman ËĲ
eg io
Ġchi ri
Ġruran apaq
ĠHin an
Ġsas acha
ĠQaqa tampu
b u
c ay
u pay
Ã ¯
as apa
ĠS I
Ġr antin
nin si
ĠH ampi
to ri
Ġaswan pas
ĠWi l
ali for
201 1
Ġpachan tin
Ġwanku risqa
M on
Y aku
Î ¯
Ù Ĩ
Ġ on
ch kaq
Ġsu Ã±
ĠÃ± o
ĠU chuy
Ġkay mi
Ġkan char
ĠV ill
Ay mara
ĠSal vador
ĠUn riya
ĠMen doza
Ġhar awi
H ina
I V
V illa
Ġ am
Ġma man
ap ur
ĠL u
ĠL as
kun i
kama chiq
ĠY un
Ġpacha ta
ĠSuyu kunayuq
Ġqhaw ari
Ġkus kan
Ġmuna sqa
Ġchi qan
Ġwaq lli
ĠPra do
P I
Ġ ari
Ġs apaq
ĠP anama
ĠM as
Ġllaqtapi pas
ĠV ar
Ġ200 3
ĠJeho va
ĠVel asco
ĠYupan ki
8 4
M us
S a
U ni
v es
v ez
Î ·
Ġq os
ĠP ata
ĠM us
nin kunata
or e
ĠY unka
Ġkaq pi
kay u
ĠAn d
ĠÃ±aw irin
ab et
ĠIkwadur pi
ĠMishiku pi
K h
s k
ĠA k
pas pa
en d
ue b
ĠRi v
Ġsi wi
Taytan ËĲ
Ġmas k
Ġkallpan chaq
1 00
8 3
Ø ±
an chaq
ay za
Ġp er
Ã± aw
ĠC l
ĠK o
Ġkay qa
Ġkay kunatam
ĠB on
llapi m
ĠD el
ĠY ay
Ġrunakuna pas
ĠMa g
ĠBuliwya p
Ġsi pi
Ġwar min
Ġuyar ispa
ĠSu wi
Ġsh imi
ĠAphrika pi
7 2
9 6
ri l
Ġn a
ĠS ap
ĠM unicipio
ĠH an
al o
Ġkaws ayta
Ġmay pi
ĠWa kin
ĠWa timala
ui z
A llin
Ġ å
ki chik
ĠA llin
ill er
hi r
ĠW ari
ĠT om
Ġya wri
Ġsuti paq
ik h
Ġc ar
ĠÂ ¡
Ġkusi tuy
B i
H ar
ĠS us
ĠS te
Ch unwa
Ġti yay
Ġqallar ispa
Ġwi ra
Ġin ter
Ġpar l
Ġ201 7
rus al
ĠÃĳ an
Man uel
rist o
muyun tinpi
S in
Å «
Ð ´
an ayuq
Ġwa m
ĠP an
ĠP uma
ra china
ĠS am
ĠB en
ĠCh incha
Ch ar
Ch ak
Ġhina taq
Ġy ar
ĠYaw li
Fran cisco
book s
' ,
A T
C a
S ir
i kunayuqmi
Ġ 000
ta ri
ch anku
as aq
Ġs apan
Ġsu y
ĠP ara
ĠA chka
ĠC u
ĠM u
âĢ ĺ
Ġt ra
Ġt hu
ris qan
aqu llu
Ġkhu ya
Ġill anchay
H anaq
P uka
Q u
an char
ta ta
ma l
ar isqa
ĠÃ± oqa
Ġdistritu p
ĠG al
all wa
ĠAn cha
way lla
Ġyan apan
Ġkuyu chisqa
ĠLo ayza
ĠWar as
for d
Hu wan
Ne vado
Br asil
Ä «
Ġh ttps
us ka
Ġpa t
re do
Ã±a ki
Ġti empo
gt on
et ro
200 7
ĠPa z
ĠPa ul
ĠQillqa p
Ġhur q
ĠLli w
uqi wa
Lag una
I Ã±
Q an
Q hi
ĠK imsa
Ġj anpi
Ġkuti m
Ġpus aqmi
) [
5 3
C al
M ari
N a
Q ispi
b an
p uq
Î ¼
Ġ ba
ta chu
Ġr ayku
ĠR om
Ch uri
Ġu ralan
all an
chis chu
Ġj am
Ġkama rirqan
ĠV er
anku ta
aj ama
Puk yu
; /
A m
A limanya
Y aya
j i
in ec
Ġq utu
manta q
ur e
ĠH a
ĠH uan
es i
ins a
ĠI gnacio
Ġra w
ac eae
Ġ4 0
Ġmit ru
Ġkun ti
Ġchanin chasqa
K u
P o
P uerto
W ak
k ana
Ġ apaq
un d
in mi
Ġs al
Ġp unku
Ġsu maqta
uy ay
iq u
Ġya pa
has pa
ens is
ĠUru pampa
ĠPaw qar
ĠHina llataq
e x
i ri
Ġk uraq
ku ru
Ġq on
Ġch ink
nin chik
ĠU N
ĠJ orge
ĠF eli
unku ra
201 4
Ġchaq ru
a kunata
e ch
t z
y aq
ku r
qan qa
Ġr untu
aw ri
âĢ Ķ
Ġkan cha
Ġkaq qa
ĠAn geles
Ġima pas
Ġur ma
Ġrimay kunaman
ĠUmalliq mi
ĠPas tasa
ĠBo li
chinapaq mi
ĠQispi qanchi
ikr asqa
6 9
A wya
B o
j as
Î ¬
Ġ à¤
is q
Ġs er
Ġp anta
ĠP uru
Ġch iq
Ġri ki
ĠJ avier
Ġyu pa
Ġkaq lla
Ġmana Ã±am
Ġqucha p
Ġrima rirqan
ĠPar awayi
Ġli wru
Ġrurasqan mi
cu a
ĠQan chi
ĠÃ±awirin aykipaq
5 8
K al
K aru
g er
i chwa
t ha
un man
ri c
ku ma
wan ku
ĠC er
ur qu
Ġm uksi
Ġruna kunaq
ill as
ĠR egi
Ġqa llawa
Ġta wan
Ġkaq wan
Ġmi r
chin ku
Ġsi pas
Ġkikin pa
Ġpaqari chisqan
Ġpisi lla
ĠKalla waya
G e
n iq
is apa
ĠS ol
en g
ĠB an
ĠW awa
ĠT aki
ĠF re
200 9
urqan ku
ĠWay las
amay o
ĠCol egio
Qucha pampa
kuyu chisqa
p una
Ï ħ
ta ra
Ġn uw
aw ra
ĠU y
ĠB or
ĠCh ayta
Ã¡ r
Ġmun isip
im s
uch qu
Ġrimay pi
Kay pi
Ġpar tidu
lo ra
200 2
Ġuywa kunam
Ġkuyu y
b y
s ul
Ġ ?
Ġp ru
Ġllaqta q
ĠL an
ĠL in
ĠW illiam
ĠG a
ray kun
ĠLe on
Ġpichqa yuq
V I
t ru
z on
Ñ Ĥ
as t
Ġs ama
Ġwa ch
Ġq uri
ĠA z
manta taq
Ġ1 00
ĠH en
ĠQ ue
ce ae
Ġ200 0
war d
Ġmuna spa
ĠRimana kuyninpi
Ġrikh uri
Ġtuktu yuq
ĠØ§ ÙĦ
alifor nia
6 1
A P
Ġ lu
pi na
cha kun
Ġsu pay
ap una
Ġllaqtapi m
chi m
ĠI landa
li ca
gu i
Ġv on
Ġsan ampam
ĠKulumbya pi
Kun anqa
av edra
s ki
tu pi
Ġka Ã±
us t
ĠS er
si y
ach in
Ġ200 4
rin i
Ġruw ayta
Warmi ËĲ
inku rachina
uj u
ĠEdu ardo
Ġukhun pi
ĠGen eral
E R
P aw
R umi
g una
ay niyki
ĠC O
nin man
ĠK ata
ĠG ab
ach inku
Ġkaq tin
ĠDios ta
Ġwar ma
ĠLo uis
Ġtuk ri
ĠAw qaq
Ġpisqu m
ĠBibli a
ĠMer ce
a kunapi
l er
m er
aq ninkuna
ur an
Ġrunakuna paq
Ġpacha qa
200 4
ĠMo rales
ĠLL AQTA
C erro
R I
S apa
b ara
s an
w u
Â ¡
Ġllaqta ta
lla kta
wan pis
Ġd o
ins i
ĠPi chincha
ĠE li
ĠO l
Ġ198 0
Ġchin cha
Ari qipa
ĠYal ap
C A
k tu
Ã ł
Å ¡
un mi
is mo
Ġs anan
wa t
ku ti
Ġq uy
ĠH ab
ĠB ela
ĠCh inchi
ĠT ay
ut ina
Ġpulitiku mi
ĠWa manqa
Ã©s ar
ĠLo ja
ĠUr asuyu
ĠAws tral
Ġqura m
ĠIsa bel
T ari
v el
Ġll ulla
qan ta
ki ta
ĠS ach
ĠK al
es a
ĠF MI
gu e
Ġqallari y
Ġruru chinapaqmi
cel ona
ĠRus iya
6 6
J a
L os
x and
y im
Ù Ī
ki ya
Ġd istrito
ap hi
Ġt han
ĠâĢ Ķ
all ta
ĠF o
spa Ã±ul
Ġ198 9
ĠSa avedra
Î¿ ÏĤ
W illka
Ġs a
ti ya
Ġh aw
Ġhuk niyuq
ĠCh acha
kan u
Ġurqu p
Ġ200 2
ĠChi chas
kunamanta qa
Ġnirqan ku
Ġruran chik
ĠChili pi
Ġpro f
Jo hn
Ġpukllay kamachiq
Ġwich q
A pu
d am
w asqa
Ñ ĥ
Ġn anay
tu ral
ĠC H
ĠS in
ap un
ĠM il
ul tura
en n
hi yu
llu ma
ĠChay pi
ĠIn dya
uni dad
ĠMay utata
Mi guel
ĠDis ney
U Y
k ara
p ara
un s
Ġll amp
Ġn di
ĠA li
ĠS apa
ap tin
manta pacha
ĠD o
om b
ind a
la x
Ġra ph
Ġkach kaptin
Ġati q
Uma lliq
Ġmus ika
Churinkuna ËĲ
ĠAs way
ĠMari ya
ĠVic toria
eres a
ĠMartÃŃn ez
ĠGre go
ĠChaq llisinchi
Ġsiwi kuna
7 5
P ampa
S ach
g s
h illu
Ġ ins
Ġp ruwins
ka chay
qan tin
us co
am e
en zo
es wa
Ġdistritu piqa
Ġru k
la ta
Ġu ra
ĠN ina
na ta
chka ptin
kunawan mi
Ġaw qan
uma s
Ġrimaq ninmi
aqtin mi
Allpa manta
Ġach kiy
Chuq iyapu
ĠMel gar
Ġtay tan
M al
P e
T h
g on
p ha
man n
Ġsimi qa
Ġ" )
ĠT amayo
si a
Ġchay man
Ã³ s
all pa
kan cha
im ripi
Ġrimay nin
Ġy ayku
ĠSuyu kunap
Ġwar aniyi
ĠPar tidu
ĠCor d
ĠAf rika
i ku
ll uqucha
Ġnisqa man
wan chu
Ġr ey
am in
ama s
ĠV ir
vi ch
Ġni taq
Ġriku spa
hin tin
ĠQull qa
Ġrimaq kuna
Ġph aw
Ġkaptin qa
Ġpachakwa tapi
ĠLampa lliqi
A b
I X
K illa
V ic
a una
g ro
k s
w ari
ku paq
Ġq uchu
Ġma ch
Ġw ayuq
ĠB lan
ĠR ip
or qa
Ã¡ Ã±ez
di al
ca do
Ġurqu kuna
Ġmayu p
An qash
io van
Ġb ib
Ġyaku pi
Ġ198 4
ĠSi chus
risti an
Ġllim phi
Ġsap si
ĠSh aw
nes i
ĠKama chiy
Yaw ar
dol fo
Ġmunisip yunmi
A chka
H in
Q osqo
j andro
p unku
q us
aq niyuq
is mu
ar aqmi
ku l
ĠA sh
ĠS ala
Ġa Ã±aki
ĠR umi
or es
ĠPi r
kunata wan
ĠG uti
ach aq
Ġkiti piqa
ĠChi mpurasu
An tonio
Ġakll anakuy
ĠJan eiro
an za
ra el
Ġch h
ĠK anada
ĠH is
Ġmi ray
Chay rayku
Mar ÃŃa
ĠEdu caciÃ³n
Ãºn de
E N
c en
e f
i kuna
i rqan
v as
un pi
aq ra
aq nin
Ġk ill
wa man
ĠP ak
Ġsimi man
ĠJ uk
ĠY an
Ġtu kuspa
te ri
kunamanta pas
Ġwill an
Wi kipidiya
Ġmikh uy
J ach
c us
e ga
l at
m os
Ġ Ãĳaw
ri ma
Ġllaqta pas
wan ka
Ġsuyu manta
ĠK amay
es s
Ã¡ rez
Ġkaws ari
Ġpacha m
ĠE mi
Ġwi dyu
ĠV en
Ãº l
Ġruw aynin
unchay pi
ĠSe b
Ġpaqar in
9 3
A ws
T he
W as
g io
k er
y in
Ø ¨
Ġ z
ch qantin
un cha
ĠM is
ĠL ari
ĠU t
Ġkay kuna
ĠCh a
di um
ha wan
ran sis
Ġyacha chi
Ġpay pa
Ġati rqan
ĠJes uc
china kuna
Ġ199 3
Ġg ra
Ġkasqan rayku
Ġatin chu
ĠJe rusal
Ġphu kuna
Ġtawan tin
ĠBela Ãºnde
' '
A M
S uy
c ti
u kuna
Ä ĩ
à ®
Ġk uy
Ġka wa
ĠP in
ĠÃ± uqa
ill aqullu
Ġpa Ã±a
ĠK ap
ĠK anta
ĠK athuliku
tin o
Ġqillqa qsi
ÃŃ os
ip hiku
ĠN ue
Ġmun ani
chik paq
pan mi
ĠMan am
uw isa
dor o
ĠAlimanya pi
ĠKaw say
olog nesi
tawa llpa
Wawa kuna
Wanka willka
Ġdere ch
ĠSeb asti
5 00
O s
Y ura
a manta
e lla
r ispa
u qayku
Î ³
ll ina
or ld
Ġya w
ĠAn kash
ĠLl apan
Ġtaki qsi
Ġwatakama m
Ġsutin qa
Ġ199 1
Ġsaq ra
Munisipyu kuna
Ġrikh urin
6 8
G er
P usaq
k isi
Ï Į
Ð ¼
ll e
us iya
Ġri rqan
ĠT um
ĠPi ruwanu
Ġ3 3
Ġl aq
ern ando
Ġuywa m
Ama rumayu
Ġuku cha
Ġkaw paqpas
ĠVar gas
Ġkusituy mi
kisi wi
6 4
o y
p os
in c
pa qa
Ġwa man
ĠA gu
Ġr es
ĠQ osqo
ĠJ r
Ġru q
Ã±a taq
vi deo
chin qa
ĠIn di
Kama risqa
Ġwawa kuna
mpa pura
ĠEn rique
ĠBer lin
cri ta
unkura wa
y aspa
Ġ +
ll qa
un chu
Ġll ut
cha ki
ĠL ar
la d
Ġu ya
ĠN asyun
Ġwi kch
Ġj ay
Ġhina tam
ĠChay qa
ĠO li
kunamanta m
kunapaq qa
umi pampa
ĠAp ulu
ĠKun anqa
Ġhawan pi
Ã©r rez
Ġunq usqa
ĠPur tugal
Ġklub mi
Ã³r do
ĠYun kay
A W
F ue
M is
R u
i de
Ġ á
Ġ taq
an q
Ġll all
Ġq espi
ĠP unta
ĠC ons
am bo
am ora
ĠM uri
on o
ĠT ampu
Ġta puy
llan ku
ut s
ce p
Ġayllu man
Ġkus isqa
Al f
Ġyachaq pas
Ð¸ Ñĩ
den cia
Ġruwa kun
ĠAg us
ĠGran de
iovan ni
J uli
M ag
S o
d an
p arqan
ã ĥ
an kuna
ĠC ara
ur ani
anqa kunata
ĠT he
Ġman as
ĠJ atun
ĠF C
um in
Ġ3 4
Ġyachay kunata
Ġpay man
Ġf acultad
ĠJesus taq
ĠTik simuyu
Ġpiliku la
Ġche qaq
Ġchiqa p
6 7
V II
] ,
Ġ ana
kuna chus
Ġp re
Ġn una
ĠC en
Ġkay ninta
Ġya char
el d
Ġman chari
Ch incha
Ġu man
Ġkaq kunata
ĠAn g
ĠE r
Ġ3 2
wi ri
Ġis h
ĠWa man
Ġ199 2
uw aq
Ġ197 0
char d
Ġchaq llisinchi
tion ary
ĠwillaÃ±iq i
C I
S U
d ona
i chu
Ġ ani
un ay
Ġk insa
Ġs asa
ku cha
Ġh uq
tu kuna
ĠP u
er va
ĠK ur
ĠW ir
Ġqa qa
kuy chis
Ġall wiya
ik o
llan taq
Ġwasi man
uw li
ĠWay as
Ġ196 9
Ġsap hi
Buliwya pi
Suyu kuna
amar ca
Ġkin ray
ĠsuÃ± aytas
abet h
" :
9 2
b ol
d in
g h
s t
s iq
Ġ ×
as llapi
ar ay
ar te
ka maq
Ġq uechua
ĠP una
ĠP on
ur wi
ul gar
Ġki ki
es ta
ĠR uiz
ĠCh an
ĠCh Ã¡
ĠCh anta
Ġkaq nin
ĠF e
ani a
niyuq mi
llataq mi
ĠRuna simi
ĠHu ay
Ġanta Ã±iqiq
ĠEl ena
was in
ĠVic ente
ĠQui j
K urku
t ter
Ï Ģ
Ġ aq
ch hu
man ia
Ġn an
Ġsimi p
Ġm e
Ġa d
ĠB os
ĠR es
ĠT upaq
yan mi
Ġpacha piqa
ĠMar cos
Ġyachay ta
Ġwarmi m
Ġmus ph
ĠPa ulo
Ġchaymanta taq
ĠQillqa q
arin apaq
tis uyu
Ġdes crita
uqan chik
ikar awa
ĠTiksi muyuntinpi
C as
I man
P lantilla
i kan
y l
un kichis
Ġnisqa kuna
ĠC ata
ĠH i
ĠH ur
ĠT awa
ĠT eresa
li k
kunata s
ÃŃ ctor
Ġas lla
Ġkaq kuna
Ġtu s
ik ray
uÃ± u
ĠIn lisya
utu pak
ĠLa guna
ĠAs ya
ĠMan u
Mama llaqta
pus qan
Ġre qs
eri o
Ġruran ku
ĠwiÃ±ay paq
Ġpin yin
mpi ku
ĠQar wa
dal ena
ĠInter na
ĠGuti Ã©rrez
utupak si
K us
T uk
s am
Ġ gu
ti yki
lla chu
tu di
ĠP utina
en tes
ĠH am
os qa
Ġsutiyuq pa
Ã¡ y
re a
Ġallin mi
ĠWi t
asqan ta
Ġpus apuna
Ġ199 6
Ġ199 8
Ġsuntur mi
Ġson qon
H K
P er
T ur
s ta
Ġsu ma
Ġch uk
ĠM uqiwa
iq tay
er os
ĠH anaq
os ta
Ġkaq pas
Ġmunisipyu m
achay kamay
Ġpar kipi
it is
Ġyachaq mi
Ġmas in
ĠPas iphiku
Ġsuqta yuq
ĠMat eo
Ġqhe pa
Ġwir aqucha
ĠChÃ¡ vez
c eres
w n
ku chkan
Ġwa ka
ĠA ran
ĠS ir
manta wan
iq ta
Ġpa chay
âĢ ³
Ã³ m
kunapi s
re y
Ġallin chu
Ġrur un
ĠâĢĵ Â¿
Ġ198 2
ĠGu z
ĠBar celona
ps yun
Lla pa
q illqa
r ana
r om
w o
Å Ĥ
Ġp anpa
ti riya
Ġh ul
Ġn erqa
Ġsu ya
Ġma may
ĠS ajama
Ġd yus
ĠM ir
ĠW anta
ĠI r
ĠT u
ĠJ ames
ĠWi Ã±ay
Ġ5 0
ĠDi rec
200 0
ĠInka kunap
ĠWan kayu
ĠCas tro
ĠLla pa
Ġminist ru
Ġkur kun
) ]]
I Y
K ashamarka
Y an
Û Į
una kuy
Ġch an
Ġch uray
Ġma t
ap uni
Ġm uy
Ġruna man
ĠF lores
ĠLi ber
Ġrimay ta
ĠÃ±awpaq ta
Chi k
Ġyachaq kuna
Ġ198 1
ĠWay na
Ġkun sul
ĠPe ter
tsi k
asha pampa
Uni versi
7 3
H uch
i d
y manta
in gton
Ġs hu
pa ka
on ia
aw ay
ĠB olognesi
ĠCh ina
Ġkan chik
Ġrimay kunapi
à¤ ¾
Ġriqsi chi
Ġraphi yuq
ĠCamp os
bar ra
ĠLor enzo
ĠTom Ã¡s
lax ia
D aniel
c or
e te
i yuq
Ä į
ti vo
Ġsu wa
Ġka j
wan ki
ra ciÃ³n
ĠA ta
ĠA liman
iq ue
ĠI may
si psyun
Ġt an
di c
Ġmun aq
ĠE di
Ġhatun mi
ĠSan tos
Ġur ay
Ġwarmi kuna
ĠKay lluma
ini di
Ġyanap ay
ts u
tr un
ĠwaÃ±u chirqan
mar ca
ĠÃģ n
ĠJose ph
ĠTari ja
iller mo
7 4
9 8
H unin
T iya
c ana
g in
Ð ¹
Ġ é
ch k
is ha
ku pas
cha kuna
pa kuy
Ã± os
Ġwa tu
qan a
ra f
ap ari
on y
on el
Ġw ari
li mpiku
ari muy
Ġta rin
la u
kuq kuna
vi l
Ġc re
ak isqa
Ka Ã±
ut er
Pi chqa
ant es
Ġruw aq
Ġf i
ĠIs rael
Ġchakra pura
kaq pi
Ġmuyu riq
ĠArhintina pi
Ġphi Ã±a
Ġchim las
Ġhata ri
ĠKilla pampa
apur una
Ġraph in
9 1
I talya
O N
R A
R e
T C
V i
V III
r Ã©
Ã ´
á »
wa m
Ġll ik
ĠP us
ĠC erro
Ġa tuq
al u
ĠR aymi
ach us
Ġmi yu
Ġpacha p
Ġqallar in
ĠMar y
Ġmayu man
Ġpay kunaman
Ġwasi chay
Ġqallari kuy
Ġmuna kuy
ĠhuÃ± usqa
196 9
Ã©n ez
ĠMor eno
col Ã¡s
Ġro ck
Je an
cua dor
inidi ktu
. -
I C
q hay
qa llu
ch uq
Ġk uch
ti en
ri el
ĠC at
ĠT ata
ĠJ os
Ġchay ri
ĠY ACH
Ġru ph
Ġrunakuna wan
ĠF or
Ġkama ri
ec on
199 0
Ġ194 5
ĠLe Ã³n
ĠSa int
Ki chwa
Ġuq uq
ĠKu ba
ĠAugus to
Ran siya
ĠBu ena
awri qucha
ĠRip uwli
G en
L uk
W asi
X I
p ayuq
q hichwa
Ã ¢
Ã ¸
Ġ Ä
qa ra
ch anta
ay pa
is tu
ar iq
us pi
ĠS ab
ĠM ur
ĠH e
ĠQ anchis
ĠCh e
Ġchay wan
Ġchay na
ĠY a
chik ta
ol ina
Ġmay qen
ĠIn kisiwi
ant Ã¡
ĠAma ru
uc re
Ġyan apaq
fi laxia
Ġmall ki
ĠWiki pedia
of t
ES CO
Ġut qay
ĠBoli via
P or
S ar
c ardo
h ka
s aq
v ille
Ġk una
Ġs ac
Ġs iw
wa kuna
lla manta
ĠM araÃ±
er as
Ġki tara
ist o
ĠT unkurawa
Ġdistritu kuna
ĠJ im
ĠJ arani
Ġru mp
kay pi
llan mi
ĠRo bert
lo rida
Ġ199 4
Ġchi ki
Ġph uyu
Ġimayna tachus
ĠKaÃ± ari
Ġtaw ayuq
ueb lo
% -
M AN
e w
un chis
Ġs is
Ġllaqta y
ĠS ch
ĠS ina
Ġm ink
uq yay
nin pa
es pa
es ter
hi ka
ĠI b
kunata taq
ĠG risya
um u
te in
wi y
Kay pipas
ut k
ptin qa
ĠDios manta
ĠAl to
Ġsutin ta
Ġtari kun
Ġ199 9
Wa lla
198 0
Ġ194 7
Kitilli kuna
Ġkawa llu
ĠGuz mÃ¡n
S HK
T o
U S
Y upay
d ro
l y
l var
q ip
u x
kuna rayku
ĠP unku
ĠÃ± uk
ĠCh aku
ĠPi d
") .
Ġmi cha
ĠF uj
Ġhina chu
Ġl ar
ĠO c
Ġpar ay
za ciÃ³n
Ġ[ [
Ġ198 6
Ġkamachiy ta
ĠFran z
Ġsinchi ta
Ġre qsi
Ġwaki china
Ġcon tra
ĠRey es
ĠGe orge
Se Ã±or
ĠSI MI
ĠSuwi t
Ġchaqru sqa
ĠMuri llo
9 5
B olÃŃvar
K is
P apa
k is
l ayu
Ã ī
à °
aq ue
ri go
Ġwa ti
ka kuna
ĠP ala
ĠC alifornia
Ġa b
chi lla
ĠH el
ĠQ uri
ĠQ ullu
chu ra
âĢ ¦
ĠT umipampa
Ġya chana
ĠD u
kan uta
Ġpacha mama
Ġhina lla
Ġl e
go tÃ¡
ĠO re
Ġkawsay pi
An cha
Ġf or
ĠQull qi
res o
201 2
Ġriqs inchik
ĠMonte video
wasin yuq
Ġpachay kamay
6 3
7 7
A KA
P unu
P isqu
o te
aq pas
Ġp olÃŃ
ku way
ĠP ulitiku
ist an
ĠH uch
ĠQ U
ĠQ hi
ĠCh uku
Ġt s
to c
Ġpi siya
re ta
chik pi
ha wana
ĠÃ±aw in
ani ya
iti m
ĠMi cha
niy oj
Ġ197 3
Ġ197 4
Ġ197 5
Ġkunan kama
Ġruru chiq
ĠJe an
Ã¼ n
ĠRos ario
Dios pa
alli vi
Kitilli piqa
Ġchawpin pi
Ġmaypi chus
S ara
b ul
Ġ anqa
aq uta
Ġs im
pa l
ru pi
ap ra
ĠK untur
Ġw ayta
pas qan
ĠH ern
Ġqa ta
chu pa
Ġt e
ĠD ÃŃa
kay a
um p
ol y
Ġkach kaq
kus ya
ĠDios mi
kunawan pas
Al berto
ĠAnta waylla
ĠJu ana
Qusan kuna
Ġku tin
Wan uku
Ġkims ayuq
ĠWinisuyla pi
iste ma
Ġsasacha kuy
ĠLari qaqa
ĠSebasti Ã¡n
K ur
L lu
X II
c ra
p uk
w t
w asqan
z Ã³n
Ï ī
an man
ma d
Ġp hin
cha ku
Ġn oqa
Ġnisqa tam
on ta
er do
en ta
es qa
ĠB allivi
ĠI cha
ĠPi l
anta qa
Ġay qi
all o
im e
ik tionary
te m
Ġkama chisqa
le men
ga do
wiki books
Ġrunasimi ta
Ġe x
Ġsap anka
Ġkallpan chay
ĠĠ ĠĠ
ĠSus ya
ĠShaw sha
Ġkunsul am
M anan
O r
Q anchis
Q ullaw
l ing
o v
Ð ³
Ġk untur
kuna tan
Ġp l
ru ma
ĠP at
ĠP achaykamay
Ġnisqa pa
ĠS iw
chi ku
Ġw in
hi l
ĠI si
kun ka
Ġkan kichis
Ch e
ach an
ir qa
ir is
ĠÃ±aw ch
pan pa
Ġy anqa
Ġc uer
ash ington
Ġqhichwa pi
kus ka
ĠRo b
ab a
kunaman mi
ob re
ĠGu ad
198 2
198 9
Ġ194 9
Ãĳawpaq nin
ĠPacha mama
anchis paq
llanta y
ĠJuli o
Ġchull unku
Lliw manta
6 2
B e
G i
Q uyllur
T awantinsuyu
U ralan
a kin
b ir
p hu
t el
ll uy
un ch
wa ka
ti c
ri t
ĠS cho
ĠK utupaksi
ĠB ro
ĠB ene
ĠW orld
ĠR ÃŃos
Ġqa chu
to rio
Ã© c
Ġpacha taq
um pa
ĠV all
lu ma
Ġcha qallu
ĠMan qu
Ġkamachi rqan
Ġsun qun
usta rika
ĠYaw ar
Qull qi
ĠTor res
ĠCÃ¡ ceres
AT UN
ĠAgus tÃŃn
U A
W al
i re
n awa
y e
Ġ Å
Ã± in
ĠC Ã©sar
nin chis
Ġruna pas
er re
Ġpa ka
ĠK as
ĠK ara
ĠK ura
Ġsimipi pas
Ġrunakuna manta
ni ca
tan i
ik ra
chik mi
ĠMa cha
Kay qa
Ġhay Ã±i
ut ista
Ġyacha chisqa
Ġb ar
Ġmuna rqan
chkan ku
Ġ197 9
Ġ196 2
Ġ196 4
Ðµ Ð²
ĠUN ESCO
ĠRegi Ã³n
ĠApulu pampa
Ã³rdo ba
urwi ga
ĠQuij arro
E d
U s
i ro
s upi
v os
v ara
w arqan
Ø ³
qa ku
ch anqa
Ġk is
Ġka cham
ĠP all
ĠP hili
ĠM uru
ĠK uta
ĠW ama
Ġqa ri
âĢ ľ
Ġya ll
ĠG iovanni
ĠY o
Ġ19 30
Ġ19 28
Ġkaws a
all in
ĠN apu
chiq kuna
Ġkach ari
Ġimay n
ank aru
Ġap ay
ho mas
197 3
ĠKun ris
ĠSuÃ± aytas
Ġwaqay chana
usi ku
Ġrun ayuq
Ġkapchiy pi
Ġllum p
urun kunatam
ĠRimay kuna
Ġtiqsi muyu
ĠChaqllisinchi pi
ĠDÃŃa z
I chaqa
V al
Ġ una
ma si
wa pi
ri llo
Ġllaqta kunamanta
lla Ã±a
Ġwa j
Ġn ish
ĠM Ã¡
Ġqh at
Ġqh uya
ci as
puy as
ara hu
na qa
aya qa
Ġwasi kunapi
rayku m
ĠAr ÃŃ
Ġmikh unku
ĠWay wash
196 0
ĠItalya pi
alla pata
ĠAle xand
Ġ193 9
ĠSuÃ±ay tam
ĠSil va
ĠTru hillu
Qhi paq
ĠAwstral ya
ĠFuj imo
ĠBallivi Ã¡n
' s
Q uri
un aq
Ġp aymi
ti ka
Ã± iy
ĠC asti
ĠC astilla
ĠS ur
ap si
ĠK am
ĠH us
ĠQ all
ĠW illay
ĠI mpapura
Ġt o
ĠD em
om Ã©
Ġyu ri
Ġkaq man
Ġkaq kunaqa
Ġmun anku
Ã© li
unchaw manta
Ġrur arqan
ba d
Ġ199 7
ĠRuna kuna
Ġhinallataq mi
Ġ197 6
niyki chis
mas in
ĠOs kar
Ġllap hi
Ġrak ina
Ġkura kan
ĠChar les
Ġanka lli
Ġderech on
Tiya kuynin
ĠScho ol
ĠFujimo ri
H o
I wrupa
T aqna
a chu
c y
p ul
p aymi
y qa
Î ®
Ġ et
cha kuspa
Ġn iw
yuq kunapaq
Ġpa ÃŃs
ĠK illaqullu
ĠU s
ĠN ikarawa
Ã© rica
Ġall qu
Ġtu suy
ĠF ri
ran ya
Ġuma lli
Ġrima spa
Ġf ami
ĠEs te
Ġuywa p
Ġuywa kuna
Ġph aqcha
201 6
199 1
ĠAle jandro
MI E
Urqu kuna
achiq inqa
DE MIE
Chak ra
ĠFeli pe
ĠHab ana
E du
H ay
T inkurachina
W ir
k aran
u es
u co
w er
ll uq
un q
pi l
ar am
Ġs ara
wa dur
ti cos
lla p
ki chwa
ĠC usco
Ġd ip
am pas
am paq
al is
kun anta
all ma
Ġmana qa
co b
Ġ3 8
Ġwi Ã±a
ĠV I
vi lla
et te
ĠRi cardo
Ġpusaq nin
ern o
niy ku
Ġallpa pi
Ġkaptin pas
Ġkun anqa
Ġchin u
áĥ ĺ
ĠWall anpi
Ni hun
Ġmis ti
ĠMerce des
AKA DEMIE
B uenos
H anan
M as
P an
l Ã¡n
p uri
p ÃŃ
r unin
an chan
ch el
ma ri
wa ki
yu spa
Ġp o
ri k
Ġsimi llapim
Ġkay man
ĠR ay
Ġqa ran
Ġsuti kuna
may o
ip ay
ran s
ĠMa c
way ku
Ġyacha kuq
200 3
Ġqhaw ariy
In lish
ĠChuq lluqucha
ĠMan awi
Ġqhi pan
uw pu
asun chik
199 2
199 6
Ġ194 2
uen te
ĠMari e
anin ka
Ġ195 4
Way lla
ĠAm eri
Ġmusi ku
uz co
ikar uy
Ġchhi ka
ĠSaw aya
ĠLiber tad
raf lores
SHK S
ĠMicha el
J ames
N or
d us
f isya
u dad
ay oq
in ka
mi a
Ġs ill
Ġp an
Ġ( ?
lla kuy
ĠC am
ĠS ta
ap tinmi
er r
chi wa
ĠB ur
ĠD E
Ġ3 5
ĠV II
ĠMar iscal
chin ap
Ġc or
ash an
Wi la
Ġimay man
Ġsay ari
198 7
Ġruru china
ĠRimana kuy
ĠKaÃ± ar
Ġmuru yuq
ĠKh allka
ĠGe org
Ġkims antin
Ġkhuya pay
ĠIb Ã¡Ã±ez
ĠPid ru
9 4
B er
C om
H a
I M
K untur
h el
m eral
s el
t uk
t Ã©
u a
v ista
Æ Ł
Î Ń
ch arqanku
aq tan
Ġs ik
Ġs untu
Ġp eru
man ya
pa pas
qan chis
ĠP ando
ĠP isqu
ĠS Ã£o
ap ar
ĠM it
ĠQ asi
ĠCh aw
ana pi
ĠT ra
ĠT arata
Ġkan anta
ari wan
ĠY ura
Ġay pan
ĠN eg
co ta
Ġtu pu
ĠLi yun
Ġis ku
asqan kuna
pe ri
qay ta
Ġriku chin
rus u
Wa kin
ĠCo ll
Ġ197 8
ĠMo is
suyu pi
195 9
kar ay
Ġsan tu
ede rico
Rimay kunap
Ġqarq urqan
ĠJehov Ã¡
ĠWill kanuta
ĠRiv era
ĠEli z
ĠCord illera
F ernando
I sa
i qa
l ina
r Ã¡
u gen
y nin
Ġ apan
qa sqa
cha ka
Ġllaqta kunam
Ġllaqta kunap
tu marka
ĠP l
ĠP rin
uy s
ur pa
on qa
ĠK us
anqa ti
Ġkay manta
ĠI V
kun ankupaq
ĠCh uri
ĠT s
Ġkan ankupaq
ĠD ar
Ġqh al
Ġqh eswa
Ã³ bal
ĠV alle
ĠLi bre
ĠChay si
ulla qa
Ġ4 3
ĠChi ki
Ġkamay oq
ej ÃŃa
res i
Ar ÃŃ
ĠSal inas
Ġsun quy
ĠSu Ã¡rez
Ġsuyun mi
ĠChaymanta taq
Ġprof eta
ĠTum pis
Ġana filaxia
Ġmuy un
Ġfami li
P ata
S I
g ani
Ã ģ
Ġ uni
ch ani
pi wan
in to
is e
Ġwa way
Ġa cha
Ġa jina
ĠL awriqucha
ĠW aki
kun ki
chay qa
Ġqh ali
ip h
Ġqall u
Ġqall upi
Ġyu yan
Ġmana taqmi
ran d
Ãĳ a
Ġmamallaqta p
Ġaw us
Ġb i
Ġpusaq niyuq
ĠIs piritu
ĠEs pin
Ġsutin chasqa
Ġ197 7
suyu pa
kusqan ta
ĠmaÃ±a kuy
ig h
Ġor qo
. ;
H ampi
J u
J atun
M u
P ak
T ru
b iya
e da
g les
Ï į
Ġp lantilla
ki l
ki tu
ĠA c
ĠM Ã©
ill imsa
ĠK is
ĠK ashapampa
aw chu
ĠQ alla
ĠQ ullaw
tin ku
Ġchay kunata
ci lia
ÃŃ gen
Ġ19 50
chik chu
ol f
Ġj ampi
ĠWi en
Ġhay u
Ġwarmi p
In di
ĠPar ya
199 9
ĠIspaÃ±a manta
isi Ã³n
Ġ194 6
Ġchur asqa
Ġpaqari rqan
ĠQu in
Ġvi rus
Anti kuna
Ap urimaq
Ġphin yim
A k
a x
a kunap
c Ã³n
e co
h er
h atun
m es
t to
w ta
ma el
mi Ã±a
Ġh api
Ġr ay
ap o
ur ina
ĠK urku
ĠH anan
al ay
ĠI spaÃ±ul
kun anku
or do
uli w
ind i
aspa qa
iy un
ut isuyu
il es
ĠDi ego
Ġpay wan
Ġllaqtap mi
ed u
Ġriku ri
it ina
ĠEs c
Ġ199 5
Ġ198 3
Piruw pa
198 3
198 5
Ġ194 1
196 5
ei ra
Ġchur an
ĠUn duras
ĠAle mania
Ġmar supi
ĠWillka pampa
shi re
ĠSim Ã³n
) )
, "
A g
A ran
D avid
K ulumbya
T itiqaqa
W illay
v is
Ã ¬
an ca
un ciÃ³n
una s
is kay
Ġp Ê¼
Ġll ama
lla tam
Ġch ill
imi ento
ĠC e
iq ir
Ġm uchu
nin kuta
Ġruna paq
ĠW amp
el s
ĠJ ach
Ch aq
ĠD re
Ġmun aynin
Ġmi tan
kay ta
ĠAn to
Runa simi
pay ta
ĠV il
Ġan tinpi
le a
chin anpaq
asqan ku
ĠO ro
Ġuy ay
Ãº bli
kunapaq pas
ĠEs piritu
Ġqull qa
Ġuywa kunap
Ġ198 5
199 4
Ġllapa llan
Ġsan ampa
ĠMinist erio
Sin ru
cep ciÃ³n
ĠCasti llo
Ġphinyim pi
A ch
H an
K ap
L ampa
Q ay
T ampu
c ros
p tinsi
Ġ arabya
an go
un o
aq t
Ġs ec
ti l
ri ri
us k
Ġch ina
Ġma kiy
ĠS umaq
ĠÃ± uqayku
chi wan
ĠK e
ĠL lan
ĠU TC
ĠB ri
ĠW e
ĠW ank
ĠI l
chu qa
ĠJ ar
Ch un
ĠF unda
ĠV era
Ġrur anakuy
Ġinti p
Ġap ulli
Ġyupay chasqa
unchay kunapi
ĠÃĳ a
aqu ÃŃn
Ġkas ara
ĠBo gotÃ¡
Ro bert
gra du
ĠKama chiq
ĠQar anqa
LL A
Ġkaus ay
cul tural
Bi bli
Ġmuksi chaq
P uma
S allqa
q hi
x a
una l
ma sqa
ti z
Ġh or
cha kunam
us ti
ĠA pa
ĠS E
ĠM c
ĠM uÃ±
Ġa c
Ġa hina
Ġw aqta
ĠPi rqa
Ch acha
uli wiya
ĠD on
ĠD al
ĠG as
ĠY awa
Ã³ gi
ĠN apuruna
ĠE uro
uch as
chik qa
ayta qa
Ġin iru
Ġc m
Ġkawsay kuska
Ġkuti ri
lan dya
it z
Chi qa
Ġkamachiy kuna
Ġak llay
Ġ196 6
ĠLe e
Ġawqaq kuna
ĠÃĳ iqi
197 5
Ġ195 8
Ma chu
fo lia
Ne w
aykichis paq
Aw qaq
ĠMun dial
Ġillanchay kuq
ims antin
ĠGab riel
B ra
F A
H e
K ura
M uyu
S am
W ank
b en
f ic
k aqta
m ula
o z
y kuna
ta pis
ll ar
Ġs am
ti cas
ri yu
Ġh er
ĠP ac
ĠP atri
ra wi
Ġpa kasqa
ĠQ ul
ĠQ itina
Ġqa ylla
Ġwatapi taq
Ch allwa
ach inchik
uch o
uch iq
ĠF a
wi l
Ġrimay kunam
Ġan gel
Ġyura kunamanta
de pen
kus pan
llanwa tapi
Ġ6 0
Ġway t
hin iya
Ġ196 8
Pa ul
Ġpaqari m
Ġkun tinpi
Ġmater ËĲ
ĠDyus manta
ĠAra bya
ĠCrist o
ĠYacha chiy
Ur asuyu
ĠGrego rio
alu pe
8 00
9 7
R ik
T u
h ama
i Ã±
m y
m Ã¡
q ha
Ġ Ùħ
Ļ ×
un pa
un do
Ġk Ê¼
Ã± awi
ĠS uwisa
am pay
uy ta
Ġm os
hi p
ĠQ a
ĠT anta
Ġt has
ĠJ er
Ch a
ci e
ĠG il
Ġkaq llataq
Ġpi chqantin
ĠAn dre
ĠIn s
aya ku
ĠChi le
Ġwill asqa
ĠLima pi
Ġkamayuq mi
Ġparki m
198 4
Ġ196 0
La go
Ġkaspa qa
ĠRansiya pi
Ġsuntur nin
Ã¼ r
194 5
tr on
KU Y
Ġnir an
Ġkhu ru
ĠÃģ lvar
ĠRom ero
K usi
g re
i la
p x
q una
r ayuq
s ter
t hu
u f
Ġ ej
Ġk han
ma c
ar n
Ġs itim
Ġp ha
lla pas
am o
uy o
ĠM ill
Ġkay ninmi
ĠB ay
ana qa
ĠT ri
ĠPi chqa
may uq
anta ta
ĠN in
ĠE lis
Ġ3 7
Ġj ucha
Ġqucha kuna
Ġpuk ara
ĠChay wanpis
ĠAr gu
Ġway q
In latirra
ĠWa Ã±usqa
th e
ĠPar ti
ĠPar roquia
Ġmuna s
unt isuyu
ink ina
Ġyaku ta
kunan tin
qs ha
Ġph ista
ĠFran k
ĠPay kuna
Ġ196 1
197 9
Li bro
Ġpaqari q
ĠHin aspan
áĥ Ĳ
Ġnisqan man
der Ã³n
Ġwasin pi
ĠMayu kuna
Ġkin raynin
Ġhan lla
Ġriq yunmi
wak llanwatapi
Char les
uns yun
ĠHern Ã¡ndez
Ġawus tupi
S hi
S im
l us
x o
y d
y Ã¡
aq way
Ġk umunista
ri tu
Ã± ora
Ġllaqta cha
lla paq
Ġn iq
ĠA tawallpa
ĠC aj
ĠC uzco
Ġm ina
on go
Ġa mi
ĠÃ± ispa
ĠK umunista
Ġw ww
Ġi r
qu es
ĠT es
asqa m
ĠG ali
Ġ3 9
Ġmay ta
chiy qa
Ġl o
asqan manta
Ġurqu pi
Ġmayu kunapi
Ġ198 7
ĠZ amora
199 3
199 7
ĠFran cis
Ġ196 3
eb re
Ġunan cha
ĠHer rera
Ġchhi kan
Wiki pedia
Î¯ Î±
Ġyaw rin
Alf redo
Ġani mal
gin ia
ĠArgu ed
J ose
K in
P uri
Q alla
S uqta
b is
p pas
t hi
t te
Ñ Į
Ù ĩ
an kunapi
ch er
ch unka
aq anakuy
as wan
Ġll am
Ġh allp
Ġh utk
Ġn ac
uk ay
tu kuy
ĠP aq
ĠP uq
Ġch uri
ĠS allqa
Ġa u
Ġki ru
pas apa
aw ar
ĠQ uyllur
Ġqa yan
Ġsuti wan
ĠD a
ach ina
ach ani
ray il
re d
Ġti ka
ara k
llan pi
unchaw kama
ĠV III
has a
Ġhay war
)" ,
maq ucha
Ġb ec
Ġparki kuna
Ġkamachi kuq
Ġ197 1
198 1
199 5
Ġhinaspa taq
fi cial
194 9
ĠRepublika p
Ġpachakwa taqa
ĠBa utista
Ġyuy aynin
Un duras
Ġkh illay
ĠHuÃ± usqa
ĠUniversi ty
titu to
Ġmir yu
ĠAfrika pi
ĠDre w
M uru
Q aqa
S il
S umaq
c rib
e ca
j ta
k ayuq
an ki
qa m
ll isqa
aq si
as iq
Ġp uru
Ġll aj
us kiy
Ġma qay
Ġhuk kunataq
Ġa lla
Ġw eb
anqa ta
ĠL is
ĠW ayta
ĠW ata
Ġpruwinsya qa
ĠR ik
or qan
ĠT er
li dad
ĠD or
ci en
Ã¡ z
Ġru raynin
kan tun
ĠE spaÃ±a
ir aqi
ran o
Ġpuq uq
Ġhin as
ant h
ĠAl onso
Ġnin mi
ariy kuna
Ġqan kuna
ĠMo ra
196 3
197 1
ĠX II
Ġuyar iq
ĠAp law
Ġ195 5
195 8
che q
rid ge
Ġnisqan ta
ĠSh imi
Ġpisqu kunam
IS H
Ġash kha
Ġllak ta
Imay na
onal d
payki qa
Ġhul yupi
ĠpaÃŃs es
Edu ardo
ĠEliz abeth
uliw yanu
Ġiniru pi
C an
E r
M am
R am
V er
W ill
f er
n as
p ro
s as
y r
Î ¸
ch Ã¶
ll y
in chu
Ġk ana
Ġs istema
Ġn ill
ra c
ĠM achiqinqa
ul e
er to
ĠK ing
Ġw aska
en qa
ĠL eo
es ar
ĠI t
ĠPi zar
Ch uru
ama wt
chasqa m
Ġrunakuna pa
tan tin
pay aq
unchaw kunapi
lu wak
Ġallin chay
ĠChay anta
ĠWi la
Ġcha lan
Ġwatamanta pacha
ptin pas
Ġun qu
lis mu
ĠAr hintin
Ġf inan
inchi killa
Ġyaku wan
Ġmusuq manta
Ġatin ku
198 8
196 2
Ġ195 1
Ġsin to
ĠÃ±a taq
ĠVal di
Ġphu tuy
Ġmusi kuq
Ġup yana
Jes us
Ã³ni ca
Mat eo
ĠCama cho
ĠOre llana
Ġanqa s
! "
K ristiyanu
N ina
P iw
S aw
T ak
W is
Y ay
i x
k m
m is
n isqa
s ana
t anqa
Ï Ĩ
Ø Ń
å ¸
ma wk
ku ran
Ġq us
ra qa
ĠA h
ĠS t
ĠK ikin
ĠH uma
ĠL ak
ĠL uya
ĠB re
ĠJ ina
Ġta purqan
la o
Ġyu ya
Ġima tachus
lt on
Ġc ons
Ġurqu qa
ash qa
Ġkach k
chan am
Ġayllu pi
aran ka
ez a
ĠPar ÃŃs
ĠiÃ± uwa
qo y
kichis chu
Ġ194 0
196 4
ĠBar ran
Ġv al
niyki ta
Ġ195 3
Ð¸ Ñ
ĠPacha kuti
for ma
Ġruray ta
Chuq ichaka
xi co
Ġhucha lli
Ikwadur pi
Ġminist runin
ole do
ĠJac k
Ġwik s
cros oft
luwak ya
3 00
6 00
S iw
T e
g un
i des
p l
t le
Ġk ut
ar cis
mi o
Ġs acha
uk ra
Ġka chay
ĠP en
Ġnisqa piqa
Ġr ispa
ĠM uyu
ĠK ko
os hi
ĠU k
ĠR unaq
ĠD an
Ġ19 20
Ġay Ã±i
ni yta
ni hun
Ġpi r
ĠV ega
le o
iy ta
ĠIn ca
il o
Ġwill aq
ĠRi t
Ġtiyan an
ed rich
ĠKay ampi
Ġaw u
Ġqillqaq pas
ĠGu illermo
Ġ196 7
196 1
fi eld
Way na
195 7
ord illera
ĠHuÃ± u
ĠAws tiriya
Ġunan chan
ĠCrist Ã³bal
__ __
ĠJehova qa
Ġpanta y
Ge org
Paw qar
Ġish kay
A z
I FA
P uy
W ata
c ro
p on
t ÃŃ
z an
z as
á Ģ
Ġ â
in us
is aq
Ġll an
Ġn apay
ĠC ap
ĠS ura
ur ana
ĠCh o
âĢ ł
ĠT in
Ġsuti yki
si k
ĠJ ud
Ch ina
Ġta pu
Ġqall wa
ĠN as
Ġin f
Ġcha kin
Ġ4 5
San to
ĠDios man
em o
sqan kuna
Ġ7 0
Ġ9 0
ĠMi crosoft
unchay ta
à¤ ¿
Ġes pa
197 6
Ġsuntur kuna
kar rÃŃ
Ġ193 6
ĠØ ¹
bur n
ĠPor to
Ġqillqan a
Ġpata man
aris eo
ĠRio ja
Lo uis
umpi willka
Ġthu Ã±i
Ġthan sa
Ã¼n chen
Ġqhat una
3 50
C i
C ordillera
U t
] )
e llo
u da
Ä ĵ
Î ´
aq pa
Ġp u
ku rayku
Ã± uy
Ã± ol
ka wa
tu ta
tu wri
ĠP uy
ĠP hi
ra hu
ki kuna
ĠS on
ĠS ui
ap h
Ġruna pura
ĠK usi
al aq
ĠQ o
ĠW aw
Ġt anqa
Ġt Ê¼
ĠG or
om e
om er
ind o
anta m
Ġay q
ir ka
Ġtu ll
Ġ3 00
oq ta
Ġ. ..
Ġuk tuwri
Ġkamachiy nin
chkan ki
Ġen tien
ark as
ĠÐ Ĳ
197 8
TA Q
ĠSo ber
ĠAb ra
ĠWasi pi
Ðº Ð¸
Ġrikun ki
mon d
Rur asqankuna
ĠMag dalena
ĠVen ez
ĠRipuwli ka
W il
b et
d ul
n y
r ar
y en
ä ¸
Ġ manta
ch aqta
ch unku
un ga
Ġs amay
ti r
Ġll i
tu ro
ĠS hu
am bi
ĠK in
ĠK ustarika
ĠH ol
anqa ku
ins uyu
ĠW ashington
ĠI X
ĠI o
or qanku
ĠT umas
ari ta
to ra
Ġchay kuna
Ġu pa
Ġall pan
ĠE g
ĠF acultad
Ġkama sqan
unan kupaq
Ġc rup
ĠIn d
Ġati paq
Ġ4 00
ĠChi m
unqa ti
Ġimay nan
Ġaw ril
Ġrimaq nin
Ġhinaspa pas
Ġv an
Ġ195 2
usta vo
ĠMay or
Ġcon t
ep burn
Ġdes crib
Ġkhu chi
ĠOs car
ĠPik kin
ĠTari pay
pur tuyis
ĠLuk ana
Pukyu kuna
rini dad
ĠAsh aninka
Juli o
SU DE
ĠInterna cional
Ġriqsichi pusqan
uter vo
Ġdescrib isqanmanta
M acha
M ikh
P una
P hili
S u
S ol
j os
p le
ku qa
Ġn ip
ka li
Ġq ichwa
ĠP utu
ĠA bad
ĠS he
ĠS ucre
Ġr an
Ġd os
Ġhuk nin
en z
ĠH ark
ĠL lu
ĠR usa
ĠI barra
Ġqa war
ĠT al
si ca
ĠD W
anta pas
Ġrunakuna s
ĠE x
Ġtu puy
te c
te ria
ull ana
Ll apan
Ġ4 2
ĠChi mpu
Ġriku chi
Ġqhaw aspa
th ur
Ġtar isqa
ĠWay lla
Ġak lla
ĠNe vado
ko j
195 6
Ð¾ ÑĢ
Ro berto
hay na
ent ral
ĠCal derÃ³n
Ġdis imripi
Ġhanlla lli
ĠPizar ro
D yuspa
G rigur
I A
L uritu
T ay
U chuy
Y a
b ach
j ch
p ol
Ġ yuq
Ġ go
ta rio
ay aq
una ri
is p
as kaq
Ġp utu
ti m
Ġll a
Ġllaqta taqa
ka man
ka ws
Ġsu s
Ġsu yuq
Ġnisqa paq
wan aku
ĠA tiy
ĠC Ã³rdoba
ĠM ejÃŃa
ĠM ISH
on di
ĠÃ± anpi
es o
hi ya
aw qa
ĠQ ay
ĠB at
ĠCh uk
ĠT im
kuy ninta
apaq qa
to la
uli biya
ĠN ata
vi o
Ġy arqa
ĠIn depen
iw uÃ±a
ec as
uan g
par in
po li
awi ra
Ġ196 5
pus tul
ĠMari ano
Ġchur ana
chirqan ku
Ġyach ani
Kun ti
Qull qa
ĠCab all
Ġempres a
tori al
ĠChacha puyas
ĠJesuc risto
Ġyall inakuy
Ġkhan kiq
å¸ Ĥ
ĠMISH KI
E mi
J ac
M e
N T
P ara
W illiam
c ta
i Ã±i
l Ã©
t ista
y ar
á º
Ġ è
ay manta
pi lla
in am
aq kunam
ma ta
ar aw
ar isqan
man os
cha wan
ĠP ueblo
wan kay
ĠA cha
ĠS ika
ĠM ikh
ur t
ĠH epburn
ĠQ hu
Ġkay wan
ĠR ub
ĠCh aka
ĠT ara
ĠT upi
kuy qa
Ġya tana
li e
may a
Ġta ru
Ġ19 29
Ġtu y
ĠF lor
te d
hu ay
Ġj u
Ġ4 4
ĠRo berto
yun kuna
ĠGrigur yu
mun d
araq u
ĠCo ra
Ġhampi q
Ġ194 8
196 6
197 0
Mana chu
Ġyach aspa
Qillqa sqankuna
Ġqhatu chay
Ġwaw qin
Ġuchuy lla
ĠTur kiya
ĠBern ardo
Ġser vi
ĠJerusal Ã©n
Ã³m ez
ĠÃģn gel
ĠParya qaqa
B el
C ara
E x
M A
U kayali
W ari
W all
b ay
b as
i le
j an
o pi
t sa
z Ã¡n
× ķ
à §
ch kaspa
ay niyuq
aq ch
ar ing
Ġs huk
wa l
Ġh o
Ġh ill
Ġh allka
Ġsu ll
ĠP ayta
ĠA ti
Ġr aryu
ur s
ul is
Ġri y
Ġruna kunan
ĠÃ± uqanchik
ĠK at
ĠK ir
ĠW is
ĠPi tumarka
Ġay a
ni co
Ã³ w
kan ki
chis ta
ĠE cuador
ĠE ugen
ĠSan ti
Ġur may
Ġyachay mi
aya kil
ac u
kus un
Ġama chana
Ġsi t
Ġtaki y
Ġmarka m
ĠAl vara
em b
Ġf auna
Wa ka
har k
Ġwas im
Ġunquy mi
196 8
197 4
197 7
âĢı âĢİ
ĠMon tes
tor es
Ġ195 6
rist oq
Ġyanap ana
ĠUn yun
194 8
Ġkaus aynin
ĠWall qanqa
ĠChak ra
Ġcas os
Ge orge
Ġdip luma
ĠSE CO
Ġsitim ripi
ĠArgued as
K as
L uc
b all
c z
c er
f ÃŃa
k y
t Ã©s
ã Ĥ
Ġ áĥ
ta sqa
ta puni
un ya
in aquta
mi lla
ku kuna
Ġh anan
Ġn uqa
us tin
Ġwata sqa
ĠM am
ĠM ach
ĠM isk
ĠM Ã¼nchen
ur g
en de
ina l
aw aq
ĠB Ã¡r
ĠW hi
Ġya m
Ġchay an
Ġqh ispi
Ġ19 18
Ġ19 17
di lla
im is
ĠAn qas
Ġhawa man
Ġmay uki
go b
Ġyura p
Ġpuq un
ut Ã³n
Ġkach kaspa
ue va
ĠAl ma
Ġb uliwyanu
ali yu
Ġyupay chan
ĠhuÃ± uy
ĠSe villa
ĠKun sipsyun
ĠÃ ī
Ġyuyay niyoq
Ġatiy nin
ĠPacha kamaq
ĠPo tter
Î¿ Î½
Ġtak ina
rÃŃ as
ĠUrqu kuna
ĠPuk yu
ĠPuk ara
Ġpun cha
Aqu pampa
tol omÃ©
Ġchiq niq
Ġbib les
Ġwaman im
dona do
Ġpusapuna kuna
ĠQasi kaypi
Ġmayuki llapi
? "
B an
B eni
K athuliku
R ic
T a
U R
W at
W amp
c ci
d suyu
g lo
i li
i da
k la
m usqa
m ph
o la
s al
w iktionary
Ã ²
Ġ x
ch h
pi ya
aq kunap
Ġs aya
Ġs isa
Ġllaqta wan
ru qucha
Ġn ana
Ġq i
ra p
ĠM eg
Ġm o
Ġri wi
Ġpa chaq
ĠK uri
ĠH on
aw si
ĠQ uis
Ġkay taq
li gi
ĠD ol
Ġu miÃ±a
Ġay ll
Ġpi sqa
ĠE m
co ra
ol u
te llan
Ġwi chay
ran sya
ĠSan dia
vi la
Ġcha m
Ġmayu kuna
ĠChi qa
ph is
Ġpar ti
ec uti
An drÃ©s
Ġla do
ĠKay qa
Ġway k
tal aya
ĠAs ankaru
ĠEs per
ĠMi raflores
Ġyaku m
kichis mi
198 6
isi on
Ġunquy ta
ĠNi colÃ¡s
ĠJo han
Ġ195 7
Ð° Ð½
Ġchanta qa
tion al
ans aliyu
Î¹ Îº
Ġmusi kuy
Ġwaw qe
Ġche q
Ġtaw qa
ĠSap si
ĠHuan ca
Ġsac erdo
Qhipaq nin
Ã©li x
qsha pampa
Ġawril pi
ĠAlvara do
/ .
A ta
A sh
A ugus
I cha
P u
Q ui
a z
g or
i chi
s ill
u qaqa
Ġ gen
Ġ usa
an kunata
ma man
Ġs yn
ku ll
Ġn er
ra ki
Ġpa chas
Ġki lu
ĠK uru
ĠH ill
ĠL uz
ĠB ena
ĠW aq
Ch an
Ch inchi
Ġ19 24
la gro
ĠPiruw pipas
ach isqan
ir isqa
gu ÃŃa
le m
Ġyachay niyuq
Ġqhapaq suy
Ġnispa qa
Ġ4 1
qay ki
Ġpulitiku m
Ġriku rqan
Ġruw aykuna
aqa sqa
Ġkawsaq kuna
10 7
Ġ197 2
ĠFran ces
196 7
ĠÐ Ĵ
ĠNi co
Ġwaqa chinam
Ġatiy niyuq
Ġ193 8
ĠwaÃ±u chispa
Ġhun yupi
ĠInter cultural
ĠBil hika
Ra fael
ĠBern ard
Pas qu
ĠBus ch
ĠBus tillo
Ġpruwins yanmi
ĠKap chiy
Universi dad
ĠFunda cion
ĠSober ano
utÃ³n oma
F eli
I NA
M in
P uq
P il
P inchikilla
S us
S te
U k
W aq
o is
t bol
v era
w ina
z u
Ġ %
Ġ aru
ta ki
as ya
mi ri
Ġs amk
Ġs aru
Ġs obre
wa Ã±
Ġp ulitika
ti fisya
ri us
Ġwa was
uk ar
Ġsu llu
Ġsu chuq
ki r
Ġch u
ĠS ha
ĠS ak
ill chinakuna
ĠQ ichwa
ĠW est
at ma
or n
el e
Ch inu
ĠG ama
ĠG all
Ġ19 25
ĠF Ãº
ĠF lorida
um ba
Ġmay pipas
Ġkama rqan
ĠV ista
Ġl ay
vi Äĩ
de a
ata llas
Ġwasi ta
ant oni
Ġni wan
ĠIkwadur pa
ĠKay pi
10 3
uc k
Ġatin mi
Ġwawa qa
Ġes tre
ĠWan kani
Ġmaq t
ĠAm Ã©rica
Ġwaqay chasqa
Ġphi ruru
Ġrikun chik
arro el
Qh ari
ĠVill arroel
IÃ± uku
Ġba uti
Ġnuw imripi
Ġpartidu pi
Ġawqan akuy
ĠJim Ã©nez
aqt anakuna
gradu pi
áĥĲ áĥ
Piw ra
ĠIo an
Ric ardo
C U
L as
L atin
U H
U ch
V ir
c chu
c to
g isqa
Ġ 00
Ġ br
ta Ã±a
in pi
Ġk hi
Ġs ol
ku chun
Ġwa llpa
tu cha
ra k
ki ra
ĠA re
ĠA lan
ĠM ed
iq in
on d
on do
Ġa ka
ĠL im
ĠT oledo
Ġya chasqa
ĠPi ru
ĠPi pas
yan g
ĠJ ord
ĠD es
ĠG Ã³mez
awa llu
Ġ19 22
la v
la za
Ġpi ruw
ĠAn ton
ĠLi bro
urin kin
Ġpay pi
Ġmarka p
Ġchas kiy
pin uta
ĠAs unciÃ³n
Ġyupay chana
Ġ198 8
ud yu
ĠAlimanya p
Ð° ÑĢ
195 4
ĠUni Ã³n
ĠUq unqati
ĠGar ci
Ġsuyun pi
ĠBer m
Ġphi wri
ven tura
Ġkawsaynin ta
kas apa
umb old
Ġup yan
à¥ Ģ
ĠChik layu
Ġat ispa
Ġwam ra
ĠPuru ha
ĠQanchis nintin
unch ul
ues tra
meral das
Ġmos oq
hip tu
aring itis
A h
A t
D is
E di
H er
I E
R it
V ÃŃctor
a chiy
a qay
m uru
m osa
p ÃŃs
r asqa
t nam
y on
} }
Ñ ĭ
Ġ vin
Ġ econ
an um
ch ill
ay e
Ġk riy
Ġk Ã«
ya chay
pa kuq
ka mi
Ġq uch
Ġq unqa
Ġq uchun
tu la
ĠP aymi
ĠP uwpu
ra j
ĠA la
Ġch uq
ĠC lemen
ĠS mi
Ġr ant
Ġhuk manta
iq ui
Ġri ch
Ġri kus
en ce
ĠH igh
anqa piqa
os i
Ġkay ku
kuy manta
kuy chu
ni raq
Ã³ li
Ġkaq taq
chis hka
wi la
Ġur as
Ġuma llina
chin chik
Ġ4 6
ĠRo ck
ĠRi chard
ĠWa qay
bo a
eg e
ĠLa go
Ġkachkan ku
Wa man
uw is
Ġtuku sqa
Ġsapa llan
ĠSal wadur
fi ca
up er
Ġ195 9
195 2
195 3
Ġlluq s
amb ridge
Ġ193 7
ĠwaÃ±u chi
War as
lio doro
ĠKaÃ± iti
Ġjunt Ê¼
Hina llataq
isq uq
ĠHen ry
ĠCO SUDE
ĠChinchi pi
ĠChinchi ru
hiyu p
Ġbib le
ĠHam ut
wo od
Ġutqay lla
MAN TA
ĠGuad alupe
llantay tampu
Kura ka
ĠÃģlvar ez
Ġqayan qillqa
Ġuktuwri pi
G risya
H en
M or
P ayqa
T s
U SA
W AN
e k
i kun
j tin
t ti
y ayuq
Ġ em
ay man
ay kunata
aq kunata
uk ama
ka pun
Ġq uya
ĠP ansaliyu
ĠS ec
ur as
Ġpa qa
Ġki chka
Ġi l
ina wa
ĠW ik
ĠW awra
kun anka
qu ri
ĠT ak
li wru
li chuku
Ġqh as
Ġas ta
Ġas uy
ach un
Ġpi chus
Ġmi raynin
ĠF rÃŃas
Runa p
ran pi
ĠMa ta
Ġy unka
iy ar
Ġyura kunata
Ġurqu kunamanta
Ġpus ay
uku mpi
ĠAs unsyun
Ġ8 0
Ġsay aq
Kama chi
llur una
201 3
ĠGu ar
ĠNa var
uka chi
ĠBar bara
Ã©n dez
197 2
ea u
195 1
Ġ193 4
Ġsin qa
Ġchaq n
ros o
Ġpur ispa
Ġpur tuyis
Ġmikhuna ta
ĠTor re
ĠpuÃ± uy
Ġhan aqmi
Ïĥ ÏĦ
ĠAlf redo
à¥ į
ĠKalla w
ĠChak as
Ð¾Ð² Ð¸Ñĩ
ĠLuc as
ĠVir ginia
ĠRes erva
Ġtus uq
kichwa pi
ĠYawa tisuyu
Ġbec ario
ĠBÃ¡r bara
Ġphiwri rupi
pÃŃs tola
B al
G ra
K uta
L u
M er
M ata
P un
P ill
S er
T in
U q
W aw
W inisuyla
j un
l ta
w ir
w armi
x os
y c
y ayta
É Ļ
Ë Ī
× Ļ×
Ø ¹
à ª
Ġ mantapas
an qan
aq qa
ma sa
yu p
Ġll as
ya m
Ġsu rq
qan akuy
Ġq usqa
Ġq iru
Ġq ipa
us e
ĠA q
ĠA wa
ĠA yu
ĠC el
ĠS un
am pan
nin akuy
ĠÃ± aqha
Ġki char
os to
ĠB is
ĠW am
ĠR UNA
or s
kuy pi
Ġ19 19
om ÃŃa
di m
ĠwaÃ± usqan
kunapi wan
19 50
chik kuna
Ġwan k
Ġj ud
ran u
Ġl aw
gu as
Ġcha ka
ĠChi ri
ĠRo jas
An qas
ĠYala pipas
ĠwiÃ± ariy
ob i
Ġuywa kunapas
Ġanta wa
Ġkasqan manta
Ġkasqan kuta
Ġph atmi
199 8
ĠInka wi
ne lio
Ġ194 4
ĠCor n
Ġkash aqtin
ĠJo aquÃŃn
Ġrumi ta
ora do
nes to
ĠCon cepciÃ³n
ĠChayrayku m
Jo han
ĠCamp o
ĠJan q
Ġrak isqa
olog ÃŃa
Ã§ a
ĠAlf aro
ĠYacha chiq
ĠNor th
ĠÃ±awi riy
ĠMos kwa
Ġimata pis
Qillqaq kuna
ĠDel gado
ĠNue va
ĠNue vo
ĠMaraÃ± un
pÃŃ ritu
hel m
Ġqhal iya
ĠFÃº tbol
B il
I r
L iyun
M isk
P l
P uru
c ano
i ang
k orqa
u Ã©
á ŀ
ch t
ch inki
mi ento
Ġllaqta kunaq
Ġnisqa taqa
ĠA j
Ġch upa
Ġr ec
ĠM aya
Ġm Ã¡s
ĠK en
at Ã¡
ana ta
ci os
ĠY aya
Ġ19 01
Ġu wi
Ã³ mi
Ġqallar isqan
ran i
Ġl ayqa
Ġallin tam
chin u
Ll uq
San tu
lo g
Ġtaki kuna
kunapaq mi
Ġf ariseo
ĠwiÃ± arin
Ġ7 5
Ġwilla kun
Ġnisqapi m
rqa ku
Ġkamayuq ninmi
uc ar
Ġo taq
asun ki
Ġkunan taq
Ġqullqi chay
ĠÐ ¡
Par awayi
Ã¡s quez
ĠØ ¨
uwa tana
Ġrun ayuqmi
Ġpur ina
Ġkunka paqmi
ĠMal donado
Ġwaqachiq mi
Ã±as kitu
Ġisqun niyuq
Ġllumpa pi
Ġat isqan
Ġmitru kama
apun im
ĠMil ano
ĠHis us
Ġchalan pi
ukumpi yu
I B
O S
P E
P hu
e u
i j
i wi
m ed
p t
y mi
Ð ·
à ¶
aq ui
ku yuq
man o
pa tu
Ã± ap
Ã± ari
Ġllaqta s
Ġllaqta cham
ĠP Ã¡
ĠP aqta
iq uq
Ġm ut
nin a
nin pas
Ġa man
chi ta
en Ã©
en da
es is
al berto
ĠT oro
si r
ari kun
Ch uk
ĠY ach
Ġqillqa spa
Ġqillqa yta
ip o
ĠwaÃ± un
Ġyu pan
ĠN aska
ĠF itz
Ġaswan mi
te o
Ġima chus
Ġin fec
ĠMar g
Ġc uen
pe ra
Ġsi mana
unku yu
ĠAr ce
ĠIs kusya
Chi m
Ġpuri riy
dor es
char qa
kuynin qa
ĠÐ ľ
ps is
Ġkaspa pas
ĠJo an
Ġniy kichis
ĠWar al
Ġar ma
tad os
ĠPal ma
ĠTe x
ĠManuel a
ath er
Ġpaqar isqanmanta
Ġkunka waki
En rique
tawa lu
Ġmuch uy
ĠApu wasinyuq
llaq tan
ĠÃ±o qayku
Î· ÏĤ
Ġinter net
IÃ± iy
ĠLin ares
ĠAlexand er
unq ur
ĠPrin ce
arcis o
A na
J avier
R es
R uraq
T um
T ata
] .
b il
c Ã¡
c ucho
e ter
g ri
h t
j illo
v antes
z os
Ġ {
aq chu
Ġk uya
is tam
is ami
ar t
ar ch
Ġs isi
Ġp ampam
ru po
Ġsu Ã±ay
Ġch ey
Ġch huk
ĠS inchi
Ġhuk tawan
ĠM awk
nin kunaqa
Ġw ayaqa
anqa kunapi
os t
al ta
ĠQ am
ĠB ir
ĠB ud
ĠB inidiktu
ĠCh al
Ġya pay
Ġt Ã©c
ari os
ĠJ ara
ĠD im
ÃŃ rez
Ġ19 27
Ġrunakuna taq
di yu
Ġpi llun
Ã© l
Ġpacha kunapi
ik llu
ĠF ir
ol m
Ġwi ru
Ġmay t
Ġj ark
Ġima kunatapas
ĠMa chaqa
Ġin lis
ĠMar cel
kuq tin
aynin wan
ĠSuyu yuq
ce do
lan tiku
Ġati yta
anaq ucha
Ġun qun
lo tte
Ġqhaw arispa
Ġmikh uch
Ġb in
Ġpusaq kuna
ĠPar inaquta
Ġmuna kun
Ġsay ay
ĠLlaqta kuna
ho u
ho ma
pacha pi
201 5
Ġqillqasqan qa
ĠDyu sqa
ati pu
Ġatin ki
gar Ã¡
Ġre ligi
min ta
Ġqill qanku
den te
Ġwaki chiy
194 6
Ro ma
Ġkallpa cha
Ġyachachiq mi
Ġhuch ha
wri yu
Chuq i
ancha mayu
anchik paq
Ġpachak manta
ĠRam ÃŃrez
Ġ190 4
Ġ190 9
ĠMor ona
me do
me dia
dal go
Ġapam usqa
ĠBil in
Ġrakin mi
ĠNor te
Ġklub kuna
Ġmu hu
Pay kunaqa
Ġlloq si
Ġon q
Ġres pe
ĠAsya pipas
ĠPhili pina
Ġmakiy asiq
ĠHuma la
ĠIoan nes
1 01
A d
I ka
M ill
P hi
R usiya
S on
f ag
g ne
k wash
p anta
u wan
z ano
Ġ vo
an e
ch ester
ll araq
un des
in qu
Ġk um
Ġs o
ti va
Ġll ant
ya china
Ġllaqta kunaman
Ġwa llam
Ġq e
Ġq el
Ġq ullu
ĠP is
ĠP usaq
Ġnisqa yuq
Ġnisqa mantaqa
ĠS uma
chi qa
ĠK untisuyu
en ti
ĠH ullaqa
ĠU limpiku
ĠR aya
taq u
at ina
ĠCh un
ĠCh allwa
ĠT uk
ci ano
Ġqillqa s
Ġkaws ana
Ġkaws asqa
di co
Ġpacha pipas
Ã±a taqmi
Ġtu pa
Ġtu tay
ha tu
hu i
Ġwi ki
tun ya
chin mi
aynin qa
ak lla
Ġhay wari
Ġurqu Ã±iq
ĠO llanta
Ġiskay nin
An g
lo v
ĠAl tu
In dya
qaq kuna
ton e
ĠAs tawan
15 0
Ġap ull
Ġuywa kunata
Ġph ransis
Ġallpa manta
Ġkall pay
Ġlluq sin
ĠSu pay
Di ego
Ġ193 5
ĠiÃ±iy pi
ĠÃ±a upa
ĠVal encia
ys u
ĠKama chi
Ġrurasqan kuna
Ġnis pas
Ġtak ana
Ġpisqu kuna
ĠMat ÃŃas
Ġ190 8
ĠSil es
Yaw yu
Ġwaw qi
Ġwis q
Ġqelqa sqa
Ã³ni mo
Mari ano
ĠCer vantes
Ġsama ri
Ġsa mana
Ġruq yay
tudi os
ĠSusya lista
Ġderechon chis
ĠColl ege
iÃ± icha
Ġfinan ci
Ġdipluma tiku
% ),
A K
C u
F lor
J anq
M icha
N IN
P AQ
Y un
i manta
i may
j in
j ara
k ra
l asi
s isqan
t ela
y kuta
ta le
in z
Ġs ami
Ġp ura
Ġp rovincia
ti kanu
ku si
pa llqa
Ġsu per
Ġq iris
ĠP aqa
us s
us un
wan taq
ĠC up
ĠC lub
ĠS as
ĠS eg
ĠS atan
ur ka
Ġm on
ul in
Ġsuyu kunaman
ĠK uti
ĠK hiniya
Ġi lik
ĠH aw
ĠQ elqa
ĠR urunkunatam
Ġchay pas
Ġicha pas
Ġ19 14
Ġkaws arqan
Ġkaq kunamanta
all u
all aqta
ca chi
wi g
ran ku
Ġqucha man
Ġc an
Ġ5 00
de ra
ĠâĢİ (
ĠRi kuway
Ġwakllanwa ta
em bre
ĠEs piri
Ġyaku chaq
ve do
Ġkikin manta
chkan i
char is
Distritu kuna
Ġruru chinap
ĠCor onel
Ġchur kuykuna
Ġchin kay
Ġrunasimi tam
194 1
cal es
kunapa k
ÃŃs o
Ġtak yasqa
Ïģ Î±
Ġcom o
ĠJa cob
ĠwaÃ±uch iq
ĠGer mÃ¡n
araÃ± awi
Rur asqakuna
ĠPun o
ĠVill ar
ĠPuru s
Pe ter
Ġakllanakuy kunapi
ĠWir aqucha
Ġir qi
ĠValdi via
Ġestre p
fag asta
: .
B ern
G o
G re
I T
M aki
M it
R us
S uch
T ri
T upaq
f era
g l
i an
s ka
y man
Ġ à¦
ch anmi
pi a
in ankupaq
ku mani
ku tiy
ya pa
ĠP ill
ĠP ruwinsya
us ep
ĠA ni
imi taq
ĠS ik
ĠS ag
Ġsimi wan
Ġa tam
ĠÃ± ut
Ġsuyu wan
er ÃŃa
Ġpa g
Ġpa ll
Ġpa tron
Ġi chhu
en pi
ĠH as
ĠH il
ina ta
Ġkay kunapi
ĠB ru
ĠB ec
ĠW ayakil
ĠI tur
ĠCh in
ĠCh apari
ĠT ol
ĠT aytan
kuy wan
ĠD ak
ĠG r
di e
Ġpi rqan
ĠN iqir
pu maqucha
do ra
ĠAn gel
ir re
tan o
ik ran
ĠV ÃŃctor
ĠÃ±aw ra
Ġuma llin
ĠMa ki
gu ero
kuq qa
kuq mi
vi des
Ġpuq u
Ġuy wan
Ġati parqan
Ġ4 7
Ġwar ku
Ġqhaw asqa
Ġruw arqa
it y
ĠWa de
ĠÂ ł
ĠGu erra
Ġwaq ya
Ġwaq ra
Ġqullqi yuq
Ġunquy qa
Ġsut Ê¼
ĠX I
ĠNi eto
kusqan manta
ĠBi ble
ĠÃ±a upaq
Ġimaymana kuna
Lli manta
kunqa ku
ĠPor tillo
ĠHuÃ± up
ĠRus ya
Ġllimphiq pas
ĠJose fa
muyun tin
Jes Ãºs
ĠAllpa manta
Ġanka llis
Har ry
risto ph
ĠSam uel
ĠPawqar tampu
ĠBor ja
ĠBlan co
ĠUt ishi
ĠCen tro
CI ON
ĠPus hak
Ġimayn achus
ĠSui za
Grigur yu
kla homa
ĠMeg antoni
ĠDol ores
ĠEsper anza
umbold t
ĠSmi th
ĠBilin gue
1 17
1 13
D o
F or
H ur
I spaÃ±ul
M ur
P all
S uwi
f t
g Ã¼
q unku
w ayuq
y as
Ä ī
Ġ ç
Ġ ob
Ġ aqha
an manta
pi yu
pi chu
in gen
kuna mi
mi ra
wa p
ti q
man do
Ġh ak
ĠA ch
ĠC ay
ĠM ul
manta s
Ġsimi llapi
Ġsimi kunata
chi ka
Ġki ch
ĠL ey
ĠQ iru
ĠB ran
ĠW aqa
ĠR ec
ĠI Ã±
Ġqa si
ĠCh ristian
Ġya chanapaq
Ġman chakuy
ari kuna
ĠD istritu
Ġay pa
ĠE va
co ma
ca ta
ca de
uch k
te ga
ha i
ĠV an
ĠV ol
br os
Ġrimay qa
uÃ± usqa
Ġhay Ã±in
pe qa
Ġurqu kunapi
Ġuy ariy
Ġpay manta
Ġ4 9
Ġhin antin
yki manta
unqa ku
Ġmikh uspa
ĠChuq i
ayu paya
Ġsay wan
Is qun
dad es
han u
Ġkasqan ku
ĠCo pa
Ġsaq ill
Ġkamachiy man
Ġruru chinam
à¤ °
Ġuyar is
Way ra
Ġatiy ninta
Ġwaki chi
ĠÎ ĳ
Hu go
Ġpampa pi
chej ta
Ġkanman chu
Ġwasin ta
ĠVal d
ys espa
ĠRam os
ira w
Kaw s
Ġtanta sqa
Ġllimph isqan
ĠLli ka
ĠTar ma
kuptin qa
dun isya
Ġæ Ŀ
atri z
ĠAt hina
ĠJac into
ĠPun tifisya
ĠBlan ca
ariwan aqucha
ĠJar uma
Rik cha
ĠArhintin ap
ĠJack son
A lli
H am
I landa
K aska
L im
Q am
Q al
Q ue
Q SHKS
T upi
U limpiku
a piqa
c ur
k t
m s
n ej
o a
v g
Å Ħ
ch erqa
pi tal
Ġs aman
ku pampa
man si
Ġwa te
ka manta
ĠP ri
ĠP ul
us uma
ĠA u
Ġch ik
Ġch untu
Ġch uku
ĠC li
ĠM ara
ĠM olina
ĠL usiya
ĠQ un
ĠB as
ĠB la
ĠW olf
taq si
at ro
ĠCh uru
ĠCh aqa
ĠT en
ĠT inkurachina
si o
Ġkan apaq
Ġkan anku
ĠJ on
Ch ill
ĠD om
Ġqh ep
uri a
ÃŃ y
Ġ19 26
Ġkaws anqa
ĠwaÃ± uq
Ġyu pana
Ġpi la
ĠN Âº
Ġmun anmi
im ondi
ik ana
ran de
ĠMa x
Ġwak manta
Ġmayu kunap
Ġkuti chi
Ġati pa
oq o
Ġni yan
bo ra
Ġuk t
Ġ15 0
par isqa
ĠHu go
Ri mana
Ġ0 4
ĠGu ay
ĠSe Ã±ora
bi Ã³
ĠLe guÃŃa
Ġkas u
Hu ay
Ġruray kamay
Ġnisqan qa
Ġsap hin
ub lin
liku la
ĠJesus man
Ġnis panku
Ġmaqanakuy pi
ĠSil anda
Ġchallwa m
ĠVic tor
à¦ ¾
Ġwillakuy kuna
Ġqhe lli
ĠGonz alo
umb ia
ĠWas iq
Le on
Ã§ ois
fec tura
ĠMos oq
Ġcas ara
Taki chaq
ĠRiv ero
Î¼ Î±
ĠRom Ã¡n
Tari pay
ĠChanta pis
ĠWit n
ĠChuku witu
ĠWama chuku
ĠBena vides
usep pe
A c
A liman
F NT
M ach
P us
P ur
P ablo
W ach
i tin
k ina
n s
p ti
t anta
w asun
x ford
y kipi
Ġ $
ll ÃŃn
Ġk ulunya
ar us
Ġs hina
wa qa
ya qa
Ġ( )
Ġllaqta pa
lla qa
ka chaq
Ġq uq
tu liku
Ġka pu
ĠP uente
ĠC ami
ĠS ing
Ġr egi
ĠM anta
ul ta
Ġruna kunatam
ĠK y
ĠK aru
en tos
en ze
ĠL om
Ġ" Â¿
al it
Ġkay kunata
ĠR eg
qu lla
qu ipa
ana chiy
ĠT uru
ĠT imo
ĠT homas
si yan
Ch unta
ĠD ur
Ġ19 13
ach ispa
ach kaq
Ġyu paymi
Ġkaq niyuq
19 39
ĠN ap
im pu
sa pam
Ġrimay kunamanta
Kay man
aynin ku
Ka chi
Ġ5 1
Ġ5 5
ĠO ri
kh olm
kus aq
ĠChi l
rayku taq
Ġwill ana
ĠRo d
ĠRi b
ed es
Ġun uta
An d
ĠDios paq
unqa q
Ġrima qa
Ġb an
pin tu
hin am
ayki ta
ĠPar do
kunaman pas
Ġsutin pi
Ġtari pan
Ġyupay kamaqa
raq chu
unchay kuna
Ri ma
ĠCo cha
ĠSe arch
Ġqullqi ta
Ġwawa manta
Ġ194 3
ĠX IV
ĠMon t
Ġchaski q
Ġtuk tun
ĠAm patu
Ġe fec
Ġruwan ku
Ġkallpa chasqa
gra fÃŃa
Ġmaqanakuy ta
Ġ190 6
Un quy
Fran z
Ġkh uy
ĠOr tiz
Ġpas aq
Ġuku mari
win u
por t
ĠAlf onso
UNA RI
ĠEd ward
Ġyar qay
Ġpat ma
ĠSala zar
ulgar ya
Ġsiw k
ĠQU FNT
toc kholm
Ġcuer po
ÐµÐ² Ð¸Ñĩ
Ãºbli ca
ĠEuro pa
ster dam
Ã¡z quez
ĠVald Ã©s
- )
1 12
1 16
A q
B N
B inidiktu
D es
O l
S iq
S AY
a hinataq
g ang
i man
i tu
i riy
m bi
r Ã³n
s ar
Ï ĩ
Ð ¿
Ø ²
à ±
aq o
wa kin
ti t
Ġll at
Ġn ec
Ġka mpi
ĠC utervo
ĠS el
ĠS uch
ĠS han
Ġhuk kuna
ur d
Ġsimi tapas
ill im
er on
er ci
chi la
ĠK Ã¶
Ġ- ,
ĠU llantaytampu
ĠB et
ĠR uq
ĠCh umpiwillka
Ġ2 50
chu m
si min
ari m
ari ku
ĠG ib
Ġ19 31
di di
19 33
ĠF IFA
da ta
te a
unchaw niyki
Ġl ey
vi e
Ġ18 21
ĠIn karrÃŃ
ata qa
Ġyacha chirqan
Ġhin aqtin
ĠWikipidiya p
Ġancha tam
Ġruw aspa
Ġrima rqan
In ter
ĠPa v
Ġqallari rqa
th o
th er
tal yanu
ank ar
kunan naq
Ġkuyu china
ing Ã¼
ĠCo ta
ĠWay ra
Ġtiy ana
Ġwawa ta
ĠX III
dr Ã©
Ġamachaq mi
phi a
ug h
Ġqill qar
ĠÃ Ĺ
Tik si
ĠQillqa ta
ĠWar anqa
ĠKama china
Ġtak ya
Ġwamani pi
ikr asqakuna
Ġwillakuy kunata
Ġkaw paq
Ġqura kunam
ykichis ta
Ġwayllukuq pas
Ġmira chiy
Taki q
ĠMamallaqta p
ĠMinist ru
Ġna cion
Ġwam ink
ĠLliw manta
Ġsanan cha
ĠIsi dro
Ġgo bi
mph iq
Ġpaqa riy
Ġjud ÃŃo
A f
B u
G iles
H uan
K uru
M ak
P re
Y unka
c c
g eo
o za
v ir
an wan
an chu
an tan
pi Ã±a
in chasqa
in Ã©
is yu
Ġs amin
yu lin
ri ck
man hina
Ġn inki
uk illa
ka cha
Ġq ukun
ĠP ampas
us han
ra eli
ĠS utisuyu
Ġwata paq
ul kan
Ġa Ã±aw
Ġruna llap
chi kuspa
ĠK ho
ĠH ip
ĠH um
ĠH it
ĠH ATUN
aw ariy
os is
os pa
ĠB all
ĠB ab
arqan i
ĠI ru
ĠI spa
ĠI raq
Ġqa par
ĠT iq
ĠT uku
ĠPi lichuku
Ġt el
Ġt say
Ġman araqmi
kama taq
Ch in
uli o
Ġ19 12
om we
Ġmana chu
Ġti w
ik raq
ĠF aj
ol k
ayta pas
Ġima m
Ġqucha kunapi
gu ÃŃn
le g
acha kuy
Ġpay kunawan
Ġham urqan
ec n
âĨ Ĵ
Ġchak ran
th ony
ĠwiÃ± ari
Ġpusaq si
ĠKa chi
ĠCar ri
gen i
Chi mpu
illay kuna
Ġpuri ri
Ġchaymanta pas
ami y
201 7
rqu ez
194 4
ĠSo to
tr os
Ġ193 3
Ro manu
Ġwasin man
ĠAb el
Ġyachachiq kuna
ĠAw qa
chun chu
Ġnis pan
ĠPuk llay
Es c
Anta waylla
Ġche qa
ĠCamp ero
ĠRu man
ĠKar l
aro a
ĠWas in
Ġunq uq
Ùħ Ø¯
ayniy ku
ĠAugus t
Ġkamarisqa m
ĠCl ara
ĠKata ri
Tari ja
UY U
Ġins titu
ĠEmi lio
ĠKanta rawi
ĠHi dalgo
Ġrurun kunatam
ĠBuena ventura
isto ria
Ġpha x
Ġsacerdo te
ĠFaj ardo
1 10
1 14
2 50
E CH
H ir
I LL
R O
S E
S ta
U khu
V en
W aruchiri
a i
b Ã¡n
f ina
k law
o u
p ariy
s z
x t
y ec
z al
à ·
ta w
Ġk ulun
ri ano
man uel
man jina
Ã± ar
ĠP et
ĠP ed
ĠA talaya
ĠC lau
ĠS co
Ġhuk chan
ĠM una
iq isqa
Ġa tina
Ġri r
Ġi talyanu
ĠH ong
ĠL una
ĠU yun
ĠU qshapampa
at ana
ĠCh upa
ĠT os
ĠT ro
ĠT ab
ĠT rinidad
tin pas
kama pas
ĠY am
Ġ19 11
Ġkaws asqan
Ã³ d
Ġpi kunachus
19 31
sqa m
chis pi
Ġmi ku
ĠAn ne
ĠE j
ir isa
Ġti mpu
ol Ã³gi
Ġaswan taq
uÃ± uwa
Ġpuk llan
Ġis anka
vi dencia
Ġ18 25
Ġc ris
aya qaqa
iti kunapi
Ġrur aspa
Ġpuq uch
Ġkach ar
Ġpus am
Ġwarmi pas
ĠRi ma
Ġmarka pipas
sh imi
Ġwatakama s
tal es
Ġtar puq
Ġuk yan
ĠCar ta
Chi ki
Ġmas kh
As ya
anchay niyki
Ġruraq qa
awi li
Ġli chi
ĠInka kuna
Ġqati y
ĠÃĳ uqa
uer te
say waman
áĥ Ķ
Ġmin uy
ĠUr b
Ġ= >
Ġchallwa kunam
Ġtantanakuy mi
Ġpalama kunam
Ġhur quy
ev es
Ġmasi chakuq
Dios qa
ede llÃŃn
Ġlluqsi y
Ġchinchay ninpi
ĠMarka pumaqucha
ĠAt lantiku
Huwan pa
Ġraw rana
ĠUy wa
zon as
ĠMerce d
ĠPir wa
ĠWit nam
Per Ãº
ĠMir anda
qip tu
Aran way
Ġnill arqan
1 18
A tawallpa
A Ã±askitu
D an
H y
I K
K e
L ar
P D
Q ul
S hu
T om
U ruwayi
b or
b ia
i z
k el
p es
p ani
p anakuy
v Ã¡
Ã ļ
Ġ 01
Ġ col
an chi
an qanku
ay ay
in ri
aq kunaqa
Ġp una
Ġll ip
ri mana
cha kunata
lla kuna
lla man
Ġq ur
Ġka tari
us to
us apa
ĠA si
ĠC entral
ĠC ambridge
ĠS p
ĠS tan
ĠS ukumpiyu
ap aya
Ġsimi ËĲ
Ġ1 20
Ġruna manta
ĠK AW
Ġi wru
en tro
ĠH ard
ĠL ud
es ti
Ġsimipi taq
ĠU l
Ġkay taqa
ĠB ol
ĠB atallas
ĠW o
ĠW isq
ana kuspa
may ta
el os
ĠJ un
Ch urin
Ġchay pin
ip u
Ġkaq rayku
ĠN urwiga
tam bo
Ġmi chiq
Ã© ctor
ĠAn des
ĠAn aniya
ĠF al
Ġhawa pi
ara ti
Ġkama riq
br as
iy manta
Ġc amp
ĠSimi pi
ris on
ac as
Ġqhapaq ninsi
chan chik
Ġham uspa
Ġama wta
Pi taq
lo y
va ca
Ġriku chiq
ĠAl ta
Chay pi
Ġrima kuna
Ġrima rqanku
ĠChuq ui
ĠCar olina
riy ku
ika cha
Ġtik sisqan
Ri chard
ĠCo mi
har d
rqu cha
ayku paq
ne q
ĠMari o
Ġmuyu p
Ġqatiq ninmi
ĠSo uth
men t
ĠCol omb
eli o
ĠwaÃ±u chiy
ĠBe tan
ĠBe arn
ĠÃ±ak Ê¼
ros by
Ġnis yu
Ġphu ru
Ġqo y
Ġqanchis niyuq
ĠMadrid pi
ff er
ĠPach eco
ĠInlatirra pi
ĠJohn son
arro llo
Ġqu wi
ĠCab rera
dol f
Ġmira chiq
ĠFer r
Ġon qoy
ĠKamay oq
Ġjay k
ĠCara cas
umin ikana
Ġshu ti
Ġchimlas ayta
Ġruph ay
ĠBene dic
ĠHus iy
ĠFri edrich
chuqa lla
ĠQul cha
Ġespa Ã±ol
Ġtaru ka
ĠQuis pe
Ã³li to
ather ine
? ),
E L
F lora
I Q
P at
T or
U CH
Y aqa
b ri
c ara
f ino
i i
m urqan
n ill
r ÃŃa
v ej
v imiento
w aspa
ð Ĳ
an ankupaq
ll ayuq
is us
ma m
Ġs eg
Ġs ati
Ġp lan
pa chan
lla waya
Ġn awa
uk unan
Ġq usan
Ġka pita
ĠP uri
ĠP re
ĠA M
ĠA puy
ĠA rika
ĠC os
ĠC ali
ĠS iq
ĠS uqta
ĠM usiku
Ġpa la
ĠK ach
pas a
pas chu
en gua
Ġsimipi qa
Ġ- -
os tol
ĠU tawalu
ĠQ utu
ĠB ulibiya
ĠW ell
qu ta
or y
or ri
ĠT el
ĠT ambo
li ano
li tar
Ch anka
Ġas ind
Ġas iru
la pi
ach o
ĠAn n
ĠE liodoro
um uy
Ġaswan qa
Ġhatun karay
hu ya
chiy asqa
Ġl uq
ĠIn g
)" .
Ġkach kay
ĠLl uq
mara ka
lo ria
Ġriku kun
Ġriku kuq
em in
isqan ta
ĠWa ka
Ġnin i
ĠQusqu pi
ĠLa gos
ĠEs meraldas
Ġsutin mi
Kama chiq
Chi ri
Ġqull q
Ri manakuy
ĠZ h
ĠRe al
Wa manqa
Ġatin manchu
Ġriqs in
ĠX X
gar et
Ġwaki chin
194 2
ĠCol Ã³n
Ġnisqan kama
ĠBe lla
fo li
ĠVal en
Ġqo cha
Ġruway kunata
Un riya
Ġllika pi
cul us
ipi sqa
ĠLla kwash
Ġpukllay kunapi
Ġus qhay
por tal
Ġqay llay
uth er
AR UNARI
Ġhan ja
Ġwis nu
Ġro manu
Ġwayllukuq si
ĠSuy sa
ĠSaw ud
All qu
Ġwaqlli y
Ġqallawa m
ayniyki chik
llakta ta
Ġhaw ka
Ġsuma j
ĠEdi torial
Ġchimlas ay
ĠJos uÃ©
ĠYACH AQ
ĠIns tituto
Ġkhuru q
Ġsinto mas
ĠØ¹ Ø¨
ĠIndepen dencia
ĠCaball ero
CU ARUNARI
Ġiwru piyu
% )
( *
1 15
6 50
A L
A po
A tuq
B or
D U
F C
I L
K uti
M ik
P ul
P anama
Q ill
R os
S ill
S ip
S inchi
S uma
S unqu
T im
W anta
Y awa
c Ã¡n
d ra
e e
e us
h ara
o cia
t ta
u ptin
y una
z ona
Ã ¥
Ã ĵ
Ç Ĳ
Ð ±
Ñ ħ
ll ino
in ea
Ġk rus
as anku
Ġs aj
Ġs ham
ti ri
Ġll uk
man te
lla lla
Ġq ulla
Ġnisqa s
ki chiy
ĠA man
ĠA jina
ĠA tuq
Ġch anka
Ġma k
Ġma qa
ĠS apan
ĠS inti
ĠS tockholm
ĠM B
Ġruna llaqta
ĠK aq
Ġi wan
es te
li m
ari rqan
uri ce
ĠG ros
Ġ19 10
19 30
uch uy
ĠF Ã©lix
da gas
hu ta
Ġj atu
ĠÃ±aw ikaruy
ull ku
kunap pas
Ġc u
acha ta
untu riri
Ġyacha chispa
Ġkar un
ue z
Ġpay paq
kus unchik
Ġ4 8
Ġhin apas
Ġwill asqan
An kash
ĠYachay pi
Ġb al
Ġb ac
eg as
Al to
ĠâĢĵ Â¡
ĠMan araq
Ġsay k
Ġg er
res ti
Wa qay
po ra
anchay nin
Ġruraq kuna
Ġrunas ta
Ġqullqi chakuy
Ġwawa kunata
ĠCor nelio
ĠÐ ĳ
ĠÐ Ł
Mar iscal
CH IS
Ġkas has
Ġkaynin manta
ĠAya cucho
Ð¸ Ð½
Ġmunan ki
195 5
194 0
194 3
194 7
Ġlluq sim
car ral
ĠRa Ãºl
Î¿ Î»
Î¿ Ïħ
Ġraki quna
Ġalli chay
Ġmikhuna paq
Ki chka
usqan ta
Puk ara
Ġsimin ta
Ġkaw pay
Ġchayam un
ĠWiki books
Ġqol q
ĠWas karan
ĠAqu mayu
Â» .
Ġllak isqa
ĠCÃ¡ r
Chili pi
ĠSay wapi
Ġmill ma
ĠLuc ÃŃa
ĠYaku ma
ĠJehova manta
ĠUy uni
wat suyu
ĠNasyun kunap
ĠRunasimi pi
Ġchan inchay
Chik suyu
ĠPachaykamay pi
ĠMÃ¡ rquez
ĠParti dun
ĠLis boa
×ķ ×
sill ir
Feli pe
Ġchey qa
lasi ku
Ġqhep anta
illim say
D IA
F ederico
I P
K am
K imsantin
L ista
M ario
N urwiga
P in
P is
Q iru
R iq
S aq
S ap
T anta
c um
f lora
g ay
h r
h is
h uy
i co
j ar
k en
k oq
l yn
p y
q pa
q usqa
s isqa
v isiÃ³n
å ¤
æ ĸ
an os
ll er
in kuna
Ġp oli
Ġll akiy
Ġh as
pa la
Ġllaqta mantaqa
lla puni
ki ku
ĠA cos
ĠC la
am eri
ĠM all
Ġsimi kunamanta
Ġm uk
Ġm uqu
Ġ1 01
Ġri p
Ġruna simin
Ġsuyu kunamanta
ĠK una
Ġw aran
ĠH ir
ĠL es
es to
ĠU ta
ĠQ al
Ġkay kunaqa
ĠB ag
ĠI S
ĠI ta
ĠCh unta
li ta
Ġt hak
ari as
apaq mi
Ġllaqt anta
Ġ19 00
ro ck
Ġay ni
kunapi taq
Ġmi khu
ir Ã¡
ĠF ar
ĠF ra
Ġima ppas
Ġur pi
Ġrimay kunata
Ġis muy
ĠChay wanpas
ĠWi llakuy
Ġ18 99
aynin mi
apa ta
Ġkawsay niyuq
Ġwarmi ta
Ġpay kunaq
Ġham usqa
Ġama chay
Ãº a
Ġtukuy ta
Ġ. -
Ġni hun
Ġriku rin
Ġ6 9
ĠAl ar
aqa pampa
ĠYachay wasi
ĠPa dre
tal vo
ĠKa mana
Ġmuna rqa
ĠIs land
ispi llu
awan a
anchay ta
and ra
ĠGu err
umi rqucha
ĠAri as
que chua
Mar tin
ĠX V
Ġre publika
Ġqhipaq nin
Ġkall pasapa
ĠWanka pampa
Ġar ÃŃ
amb uya
aqtin taq
Ġllaqtan chik
ras co
ĠDyus ta
gra ma
Ġyach arqan
Ġpuriq lla
May utata
ĠSeÃ±or pa
ung un
Ġwaw q
Ġca us
Ġus us
ĠJuli a
ĠKu pam
Ġwis n
dis lao
Jes usqa
Ġpaqta chay
Äģ n
Ġapayka chay
ĠwillaÃ±iq ip
Uy wakuna
Ġyawri m
ĠTay lor
ĠPuna ta
Ġte qsi
ĠEste b
ĠChaw in
ĠPirqa pi
ĠNapuruna kunam
ĠkÊ¼ acha
ĠAbra ham
ĠInd ÃŃgen
ĠAcha chilla
Ġumallina manta
ĠYawatisuyu pi
Res erva
llino is
A man
A la
C ata
C alifornia
C Ã©sar
H uklla
I R
I CH
K anta
K iru
P utu
Q H
R uray
S uwisa
T O
T homas
W uliwiya
] "
b ru
g ul
g li
g ia
h em
k way
k ista
l aya
p uka
z Ã¡
Ã ª
Ø ¬
à ¨
à ¬
mi tru
Ġs at
Ġs ak
ri ta
Ġ( +
pa c
Ġllaqta kunata
Ġwa l
Ġwa chu
ka mun
Ġka cha
ĠP ol
ra ma
ki e
Ġma rq
ĠC ity
am Ã¡n
ap est
ĠM t
ĠM Ã©ndez
ur is
on pa
Ġri purqan
en do
ĠH or
ĠU gar
ĠB usta
asti ka
ĠI v
ana man
kuy mi
Ġya kun
asqa yki
si ma
Ġkan sillir
apaq pas
Ch ull
Ch uku
Ch aka
ci ca
la g
Ġmun dial
ĠAn na
Ġall pata
ca go
Ġtu q
ĠF ederico
um aqucha
wi ch
ĠwaÃ±usqa Ã±a
ĠV a
Ġima s
Ġima manta
lu pi
Ġ/ /
Ġrimay tam
Ġrimay kunaqa
Ġyachay nin
Ġ5 3
pe raciÃ³n
urin am
Ġnispa m
ce a
Ġati kun
chan anpaq
Ãº dez
ĠRo ca
lis a
Ġriku chiy
Ġaw asqa
kunaman qa
ĠKa pinuta
Ġchakra ta
Is la
awan tin
ĠRuna qa
Ay ti
po dium
ĠWay ana
Ġ0 5
Ġtuku kuy
Ġquyllur mi
Ġak llan
he in
Ġkanku man
Ġwawa kunapaq
var d
Ġchur aspa
Ã±iq in
Ġchin kan
Ġwaki chisqa
eni co
for mula
ĠMay o
Ġjina ta
Iskay nintin
Ġ193 2
ĠTi wanaku
ĠQu paq
gra d
Ðµ Ñĩ
Ġpro fe
Ġ190 7
Ġkh uska
Ġqispi sqa
ĠAws anqati
com unidad
Ġ187 2
ĠÃ±uÃ±uq kunam
val o
Ġhar aw
Mo ysespa
ĠInter net
ĠKaw s
ukun aq
Ġ189 5
ĠAqu pampa
Ġrin ri
Ġaj llasqa
Ġjap Ê¼
Ġmayqin kunachus
ĠChik suyu
ĠWil helm
Mus ika
Mari e
ĠkaÃ± ina
ust ria
Apu wasinyuq
ĠMaraÃ± Ã³n
Ġwati qaqkuna
ĠpolÃŃ ticas
áĥĺ áĥ
Ġmuyun tinpi
ĠEspin oza
ĠMÃ© xico
ĠQalla w
ĠJer Ã³nimo
Ġalla uk
ĠRik ina
ĠBarran ca
ĠVenez ia
Ġsull k
ĠBerm Ãºdez
ĠMarg arita
ĠFir enze
biÃ³ ticos
ĠColomb ia
maraka eri
ĠØ¹Ø¨ Ø¯
ĠGuerr ero
ĠEsteb anta
ĠBusta mante
I gnacio
K ita
M el
M ish
M uqiwa
P asta
Q AN
R untu
R ub
T ab
b us
c una
c re
d f
e di
f Ã¡n
h al
h awa
k aru
s un
s burg
Ã ½
Ä ±
Ù ģ
à ½
Ġ <
qa chu
ay chis
Ġk o
ar ka
Ġp ap
Ġp uys
ti wu
ri kuq
ku llan
Ġh i
lla tapas
ru siya
Ġsu sya
ĠP allqa
ĠP res
ĠP lantilla
ĠP lata
ki qa
ĠA bi
Ġch urinkuna
ĠS ama
ĠS ud
ĠS atipu
Ġhuk chay
ap unin
Ġruna kunatapas
er cio
chi kunku
chi gan
ĠK aymi
ĠK acha
Ġw asa
en za
ĠL ab
ĠL atin
ĠL atina
es e
Ġkay niyuq
ĠR im
ĠCh antÃ¡
llapi s
ari yta
ĠJ allp
Ch antÃ¡
Ġchay pim
uli wi
ci encia
Ã¡ l
Ġru man
Ġu Ã±
ach as
Ġay Ã±
Ã³ lica
Ġyu pasqa
Ġpi ll
chis paq
Ã© lica
wi ck
pam pilla
Ġl aru
Ġin i
vi ana
le pis
chin man
Ġqhapaq nin
untu masa
ĠDi ez
ue vo
kus han
ĠChi co
ĠChi mu
Ġwill ayta
Ġwill aspa
ĠRi ta
Ġun ayta
An to
anka llu
Ġway ll
kuspa taq
pin ef
Ġkus iy
ĠLa ur
war e
Ġmuna pay
ui ta
ali za
rq un
ens es
Ġ0 2
Ġ13 0
ayku sqa
Ġilla pa
ĠÃĳ o
ĠÐ ļ
Ġkas haspa
Man qu
ĠHin as
AY KUNA
ĠAm e
Ġllaqtan si
ĠIskay nin
ĠVi z
eral ta
ĠJesus mi
Ġchim pan
Ġtanta ri
Kun sipsyun
Ġqhatu q
Es tado
chikun man
Ġhur qun
ĠwaÃ±uch isqa
ĠHar ry
ĠTawantinsuyu p
ĠTawantinsuyu pi
ĠPur tuyis
Ra Ãºl
llawan chu
Ġapayka chana
Ġwik sa
end ÃŃn
para ÃŃso
Ġpruwins iya
ĠCord ero
Ġá ¼
ĠInterna tional
resi dente
ĠAnto fagasta
Jose ph
ĠTer ry
Ġministrunin mi
ĠTara paka
Ġquchun tin
ĠCorn ejo
ĠLom bar
ECH UA
pinef rina
' m
: "
A mi
B ur
C ons
F auna
H i
K o
L ak
Q uta
R ak
R uru
S un
S ak
S upay
T r
W A
a ja
e ma
f rica
g risya
g reso
h on
j p
j ana
l ÃŃn
m uspa
s all
Î ¾
Ñ ĸ
æ ĺ
Ġ >
pi q
pi chus
in os
in chaq
Ġk uk
Ġk uta
is un
kuna hina
Ġs p
Ġp r
Ġp aqu
ti k
Ġll aw
Ã± al
Ġllaqta mi
Ġwa maq
ka pa
ĠA lli
ĠC ul
ĠS r
ĠS ul
Ġr eg
Ġr espi
Ġd ia
ĠM es
manta chu
Ġa utÃ³noma
Ġruna pa
Ġruna wan
ĠK ayta
Ġi m
ĠH ero
anqa ra
es al
hi ra
ĠW ara
ĠR ose
ĠR imaq
kun kichu
Ġqa wa
qu llu
ĠT utura
Ch aki
ĠD en
Ġqillqa pi
Ġu ru
Ġu chu
ro ga
Ġkaq mi
19 0
19 37
all cha
ĠN una
ĠN arciso
re f
ĠE pÃŃstola
ik e
ĠF ray
Runa qa
Runa kunaqa
gu ar
ĠMar tha
kuq kunapa
aynin manta
ĠIn lis
Ġ5 4
pe ru
ĠO ta
ĠO ax
ac e
Ġuy an
Ġuy way
Ġwarmi wan
Ġwarmi kunata
pis tula
ph en
ant hanu
Wi lla
et ti
ia mi
Ġ6 5
Ġqhaw aq
Chay nu
Ġkatiguriya piqa
ĠPa ula
ĠYala man
ĠÃ±awpaq ninmi
Ġwilla kuq
ĠIs rayil
unt y
Ġyupay qa
Ġyupay chay
Ġyupay ninqa
Ġph isqa
bi ri
bi os
mo to
Ġli ber
Ġli bro
Ġrisirwa pi
Ġchask ispa
ĠEl ÃŃas
kusqan rayku
Ġv en
iru l
cho a
ĠDe por
Ġtuk un
Bac charis
risti ano
Ġatiy niyoq
Si chus
Ġwaqay chay
Ġach ki
ĠAb aroa
Ġpurin anpaq
ĠAnta pampa
Ġyach anku
Ġmikhuq mi
Sal mo
Ġtantanakuy ninmi
Ġsimin mi
inqa ku
âĢĿ ,
45 1
Ġlas t
ĠOs lo
UN KA
Ø§ ÙĦ
Ġtaw na
ĠAf gan
Ġchull pa
tul suyu
Ġmill p
ĠAll qu
Ġaj llay
Qar wa
Ġrik cha
Ġper don
ĠPuma pampa
ÏĮ ÏĤ
ĠPon ce
AKADEMIE p
Nor th
ĠChiki chasqa
Ġajina ta
ĠPaq llun
ĠWhi te
ĠYACHAQ ANA
Pasta sa
B ud
D A
G as
L iw
P eru
Q a
T uru
T inkimuq
T arata
W isk
a kunatam
b oro
c ash
c ruz
d ero
d ong
f il
g y
i wa
j al
s yu
u taq
w ariy
w ell
y pa
Ì ¦
Ù Ĥ
à ´
å ·
Ġ #
ch asun
una m
ar suyu
Ġp ana
Ġp rom
Ġll ikan
ri z
man ca
Ġn asyun
Ġn esqa
Ġq ell
ĠP laza
ĠA wankay
ĠS to
ap utu
uy t
Ġ1 17
nin piqa
ĠK ol
ĠK uka
ĠK AY
ĠK AQ
ĠH al
ĠL and
hi a
aw tis
al do
ĠQ imis
ĠW in
at em
ĠCh all
or Ã©
ĠT r
ĠT inku
ĠT antasqa
Ġya chas
Ġsuti yoq
tin i
Ġwatapi manta
el son
Ġ19 16
ip an
ip to
ach inapaq
anta man
ro w
di f
ĠwaÃ± urqa
kunapi n
19 34
Ġmi kuy
pu wan
co le
co llo
asi ri
chik manta
chik pas
wi Ã±ay
hu anca
llan d
unchaw pa
unchaw niy
ĠV Ã¡squez
ĠChay pacha
Ãĳ o
Ġ18 0
Ġ18 30
Ġ18 49
ĠSuyu p
Ġyachay ninta
ata s
Ġraymi m
Ġpus asqan
Pi ruwanu
uru ta
Ġayllu kuna
Ġtiyan anqa
Ġmamallaqta pura
Ġ6 4
Ġqhaw arin
ĠJes uk
sh kay
Ġway lla
ĠWa tikanu
th y
ĠLa jas
du kuna
ĠEs tra
Ġap us
Ġchaymanta qa
Ġo vej
Ġkamachi kuna
ĠGu alberto
ĠMo xos
ĠSi pi
Ġatin man
las o
Mar ka
rib io
Ġkas pi
Ġkun ris
kunku m
Ġkall payuq
ĠHin aqtinmi
Ġyuyay niyuq
ĠWar aniyi
ĠMay nas
tr as
Ġqhari p
Ð¾ Ñģ
Ima tataq
ĠTo k
Ġwaranqa chÃ¡
ĠVi dal
ĠPuk arani
allam pam
Jo an
ĠOr tega
hua hua
Ðº Ð¾
Ġpachakwata p
Ġwanku risqan
Ġ189 8
ĠFi guero
Ap ulu
Ġmancha kuspa
Yacha chiy
cay o
ĠSuwi dsuyu
ĠWawa kuna
Ġthan sam
Ñĥ Ð°
ĠIndi hina
ĠTampu pata
Mag dalena
Ġad j
arinapaq qa
Ġwaka mayu
ĠHel ena
ĠDu arte
ĠKara kas
Hay k
ĠKis kachay
Sam uel
Ġpaqarim urqa
Ġkinraynin pi
Ġpantay chu
ĠHol guÃŃn
ĠTupi sa
liwru kuna
ĠKuntisuyu s
Micha el
urka mpa
Ġkich kasapa
ukilla p
ĠCarri Ã³n
Ġcris is
ĠBenedic tus
Ġrakiquna qa
Ġruman tiku
jp g
A ti
C lau
E cuador
F ri
H uÃ±usqa
M aria
O R
Q upaq
R aymi
S ut
S Ã£o
T iq
a kunaqa
c s
e qe
i ca
i rus
k Ã¯
s ispa
w ayta
Ú ©
à ²
Ġ %-
an us
an to
qa ta
ll os
pi r
pi sa
aq ana
ar achiq
Ġp op
ri yta
ku taq
man ata
Ã± ur
Ġllaqta kunaqa
lla ma
Ġq uz
ĠP hu
Ġnisqa mantam
Ġnisqa wanqa
wan i
ra do
ĠA pustul
Ġch Ê¼
ĠS aq
Ġr inku
Ġm urun
on ne
Ġri kuyta
ĠÃ± ust
er na
chi j
Ġki chasqa
Ġi mp
ĠH un
ĠH umboldt
ĠL amas
ins ya
ĠQ hawan
ĠW ach
ĠR ur
ĠR ed
ĠI chi
Ġqa paq
qu pi
or ro
ĠT unari
li d
Ġt una
Ch all
to wn
Ġchay taqa
ci des
ĠY aqa
Ġqillqa kunata
Ġkaws achi
Ġu ch
ĠN isqa
ĠN awa
ĠN ati
ĠN oqa
ĠE vo
co to
tan der
ĠF uen
chik pa
pan aykuna
Ġrimay manta
uÃ± una
ĠChay piqa
chin chay
chin ankupaq
ĠSuyu kunapas
Ġhay ku
Ġyura kunaqa
ris h
ĠO n
ata kunka
Ġmayu wan
Ġkuti chiy
Ġkach arqan
kus ani
Ġama chanapaq
taqa yta
et rio
Ġni taj
Ġ6 00
it pa
Ġimay aymi
pin ku
amp ara
ĠwiÃ± aspa
Ġuk h
Ġ7 00
Ġ9 7
du wa
Ġ8 4
uma wi
gen cia
ĠMi chel
Chi mpurasu
ali man
13 0
Ġtik ra
unchay mi
ĠZ ac
pun chis
anchay manta
anchay niy
Ġwall qanqa
Ġ0 3
ami l
NA IE
asun chis
ĠPay kunataq
Ġtiy arqan
ĠInka p
ĠX i
Ġre par
kusqan ku
ish ka
ko v
ong reso
ts iq
ĠWar nes
ĠUni dos
ĠAm sterdam
se co
tos ÃŃ
Î± Î½
Ġyachachiy ta
ĠAw tun
ĠTik ina
Ġyach asqan
Co pa
tera tura
ĠOr gani
ĠMin as
Ġllap anku
ĠBibli aqa
Ġqay llanpi
Ġchull usqa
ĠBel Ã©n
ĠMarka pata
Ġsar un
Ġqar ayuq
AP AQ
Ġwarma kuna
ĠTay han
ĠSin ru
kul tur
Ġpre fectura
Mamallaqta pura
Ã³m ulo
ĠÃ±uk ch
oly lepis
ĠYo ung
ĠEsc uela
Chaq llisinchi
ĠFrancis ca
ØŃ ÙħØ¯
ĠPachakuti q
ĠTex as
llaqtan mi
ocia ciÃ³n
carral d
ĠQupaq hawana
A pa
A chi
C ab
H unt
H ATUN
I ru
J an
L or
L and
M ul
N U
P ach
P har
Q uchas
S acha
T inku
W aqra
a chirqan
a Ã±an
c tu
d Ã©
f al
g es
i wan
k ari
k sa
m ur
p anqa
r ente
s y
s us
s ina
t Ã¡n
v n
z ig
Ä ĥ
à ¹
Ġ ì
Ġ oq
Ġ ver
ľ Ķ
ma ch
as e
as ara
kuna kama
Ġs ind
Ġp ri
Ġp Ã¡
ri Ã±
ri llu
Ġh unta
Ġ( ).
cha kuynin
uk ru
tu d
Ġka m
Ġnisqa kunata
us ki
ĠA hina
ĠS ic
ĠS ullana
Ġr ej
Ġd oc
ĠM oro
ĠM edellÃŃn
Ġm ul
nin kunap
Ġa li
ĠK uk
Ġi kwadur
es c
ĠU yu
ĠU rib
ĠR ak
ĠI m
li er
Ġwatapi kama
Ġkan chis
Ġsutiyuq mi
Ġqillqa qa
Ġ19 21
Ġ19 23
Ġyu yu
Ġkaq ninkuna
19 36
kan chik
ĠN ic
ĠAn t
Ġti emp
tan ku
Ġ3 60
hu asi
unchaw piqa
Ġrimay ninkuna
go w
ĠWi ru
unan kama
Ġc ul
Ġyachay niyoq
ac on
kh an
Ġkuti ta
Ġwarmi kunawan
Ġyacha qarqan
ĠChi cago
Ġham uch
ph y
ĠRo dolfo
Wi ru
ab i
Ġni kun
za da
Ġla gar
Ġway n
Ġrima pay
Ġrima rin
isqan ku
Ġastawan mi
ĠLa ura
ĠEs tero
Ġqull uy
Ġchi kan
anchay qa
ag e
chkan mi
char isqa
ĠLe wis
ĠCor inti
Ġes cri
ĠÐ ĺ
Par que
Man u
kusqan kuta
Ġwillay kunata
Ġrunakunata s
Ġal kali
ĠÎ ļ
Ġyawar ta
Ġlluq siq
Ġruwan a
ĠRepublika kunap
Ġnir aq
Ġsin ta
Ġkallpa wan
ĠLuis a
sim bur
ham mad
Fran k
Sal vador
ikr arqan
Ġkawsaynin manta
War anqa
ĠQui to
ĠYana ma
Ðº Ð°
ĠRu manya
ĠIsa ac
Ð» Ð°
Ġcom unidad
olog ia
Ġku yuq
ĠWalla qa
Ġpun kiy
pur an
ĠTur qu
dun ya
Aqu mayu
hir riÃ±
ĠKata l
ĠOl medo
ĠGrego rius
ks and
ĠDirec ciÃ³n
Pisqu kuna
ĠĠĠĠ ĠĠĠĠ
ĠBene de
Bibli a
Ġmunas paykiqa
Ġunqu chiq
Sol anum
gisqa tar
ĠNavar ro
ĠæĿ İ
ĠSing apur
Ġrespi ra
ĠTok yo
hirriÃ± aphi
7 50
B on
D yus
F er
F lorida
H ayka
I ta
J on
K en
L imaq
Q ata
S ur
S ami
T al
W am
c ca
c aya
d ar
f an
g man
m ento
n us
Å Ł
ta ma
qa spa
ch os
ll Ã¡y
ay Ã¡
ar inku
mi l
mi r
Ġp uma
Ġp res
ti o
man am
Ġh at
Ġh anpi
Ġh ich
cha kurqan
Ġq ui
Ġka man
ĠP allan
ĠC ultura
ĠC rosby
ĠS ill
ĠS up
Ġwata s
Ġhuk taq
ĠM ani
Ġm ishi
Ġri jch
Ġruna taqa
en cio
en berg
ĠH uklla
ĠH ei
al e
ĠQ SHKS
ĠR on
ĠI hiptu
kun chik
ĠCh uta
ĠT un
ĠPi erre
Ġkan anmi
Ġt unqur
ĠJ i
ĠD er
uri pi
ci ata
ama ri
ĠG ro
ĠG Ã¶
awa ka
Ġqillqa ta
Ġta ta
om bre
ip e
ach Ã¡
all iy
Ġmun ayninta
chis mi
Ġpacha pas
do u
do val
co bo
Ġtu r
ĠF ord
Ġ3 65
inki chu
ha vn
pay ay
Ġl aqu
Ġis law
ĠChay na
ĠWi lla
Ġ18 44
chin o
Ġhay aq
pe jo
acha manta
ac Ã¡n
il ar
Ġham uy
18 0
ĠRi ch
An dre
kunawan qa
Ġmikh usqa
Ġwatakama qa
Ġaw r
Ġb il
Ġpusaq ninmi
ĠMan Ã¡
Ġ9 00
war t
war qa
war anqa
illay manta
aru milla
anchay pi
ĠCo o
ag as
Ġtuku kuq
bi yu
Ġwaq llisqa
Ġruru yuq
ug las
uj uy
den as
Way las
Ġyanap ayta
ĠÎ ł
eli leo
ĠAle gre
Ġayllun kuna
ĠPe Ã±a
ĠwaÃ±u chiyta
Qall arina
ĠBa gua
oro d
Ki tu
elqa sqa
LL AQTA
ĠHuÃ± unakuy
Inka kunap
ĠYork shire
ĠMin h
Ġuku pi
ĠWak cha
Ġwayllu kuy
ĠMer cado
Ð» Ð¸
Ni colÃ¡s
yoq mi
Ġruwasqan ta
ĠWillka waman
ĠTru jillo
ĠBra vo
Ġyachachisqan manta
Ale xand
ĠGra u
allan es
Ku yuq
Os car
ĠNasyun kuna
ĠHur tado
Ġreqs isqa
ĠAran way
Ã¢ n
Ã¸ ben
ĠQU ECHUA
toc Ã³
Ġbar ri
ĠKuta kachi
ĠKunris unman
ĠChiki tus
ĠElis abet
ĠWayta ra
Yay ayku
TAQ TAQ
ĠSak saywaman
Ġbauti z
Ġvin o
ĠParinaquta pas
imitaq i
Ġtiw lli
Ġphax si
ĠKAW SAY
emin ario
ĠUgar te
ÐµÑĩ ÑĥÐ°
Ã¸ben havn
7 00
A ni
A phrika
B ob
C e
C el
D el
M una
M os
N awa
P ru
P aqa
R io
R ey
T uku
U T
U j
V alle
d d
d rin
e va
g ina
h ta
h aq
h ari
h anka
k hi
l ara
m ino
n Ã¶
p tiy
p ng
s tein
y arqan
y co
Â ´
Ã į
Ġ aqu
an anku
an ga
ta yta
in f
in man
aq ya
Ġk hata
is u
as is
ar al
Ġll uchk
Ġh atu
Ġh isp
cha manta
ru ta
Ġq iq
Ġq urqan
ki man
Ġch ar
Ġma ra
ĠS uti
Ġsimi taqa
Ġ1 16
Ġa tis
Ġri kuna
Ġri kuq
Ġpa k
ĠK all
ĠK ell
ĠK imsantin
ĠL aw
paq ucha
al pa
ĠQ urani
Ġkay hina
ĠR iy
qu ot
ĠT uta
ĠT akiy
Ġsuti man
tin yu
Ġman ya
to ral
la del
Ġrunakuna pi
19 18
19 32
all os
ray mi
ĠN iko
ĠN uestra
ĠN uÃ±uwa
Ġmi lagro
Ġtu mpa
ĠF on
da do
Ġwi llam
Ġl an
way u
Ġallin lla
Ġallin chayta
Ġin tra
Ġis kuy
ĠMar k
Ãĳ uÃ±uq
vi er
Ġ18 24
Ġ18 90
Ġc ristian
ĠIn te
Ġyachay pi
ata pas
chiq ta
Ġuy wasqa
Ġkantun pa
Ġyacha kun
Ġyacha kuy
ph p
Ġwasi manta
Ġwasi kunata
ĠWikipidiya qa
ĠWikipidiya pi
ura z
Ġkitilli pipas
sh qa
Chay pacha
Ġway llay
it os
kuspa m
ĠÃ±awpaq man
qaq ta
rqa spa
Ġap asqa
Ġqull pa
Ġqull qin
Ġwat ana
pun chik
Ġkikin ta
ĠWay q
dor f
he im
à¤ ¨
las gow
osa da
CH AY
dr ÃŃa
fi cio
Ã±iq i
Ġallinta chu
Ma d
Ma man
Ġkasqa ku
car pus
Ġakll aspa
ĠRa imondi
ĠTi bet
ĠDyus mi
ord ina
ĠQar as
Ġkaus aypi
Ïģ Î¹
Ġyay kuy
Anta Ã±iqiq
ĠRu fino
Ġ186 8
ĠCan seco
Ġhu chay
à¥ ĩ
Ġyachaywasi pi
Ġaj ll
ĠCama raqa
ĠTantanakuy nin
All wiya
ĠSte wart
Ġtra di
Ġraw ray
Ġqallawa p
ĠLeon ardo
ĠHen ri
ĠSer vi
ĠUrasuyu pi
ĠPartidu pi
Ġakllanakuy pi
ĠTiksimuyu p
Ġuman pi
ĠCat Ã³lica
ĠQhi paq
Qay na
Puri muq
ĠKko ta
Ġâ ľĶ
ĠJud as
Mikh una
ĠJord Ã¡n
Ġunqun ayaq
ĠGr anada
ĠWolf gang
Kayman Tinkimuq
5 50
A C
A hinataq
B oli
E C
G ab
G ustavo
K at
K AY
K awallu
L on
M AS
N O
P umaq
R aw
S uri
S eg
T ra
W ayta
g Ã³n
h ana
i chiy
m et
n or
p pi
t l
t ist
y ce
Â Ń
Ø ª
à ¯
ch uk
ch ea
ll us
ay wan
pi ka
is wa
as yu
as Ã±a
as ani
kuna ka
ti que
Ġll amiy
ku ku
ku tu
man chus
Ġh amawt
cha pi
Ã± ka
Ġllaqta pura
Ġsu r
qan qan
Ġq una
tu a
ĠP ab
us uy
ĠA hinataq
ĠA dolfo
ĠC ari
ĠC alla
ĠS tu
ĠS ac
Ġr aya
Ġhuk chakuq
uy tu
ĠM aw
ĠM usi
ĠM aqanakuy
Ġsimi pas
uq ue
Ġ1 10
nin ka
Ġa chik
ill os
en na
ĠH unt
ĠH AS
anqa m
anqa p
ĠQ H
ĠQ ill
Ġkay pa
ĠB ob
ĠW A
Ġpruwinsya kuna
ĠR uwaq
ĠI ran
ĠI qiptu
kun ta
or th
ĠT an
ĠT re
ĠT eo
ĠT aka
chay pi
tin taq
Ġsuyupi taq
Ġman yan
Ġman qus
ĠJ awira
Ch aku
Ġchay pacha
Ġas no
ip sis
Ġu manta
Ġay s
Ġpi tapas
19 38
Ġmi em
im ri
pu d
ĠE v
ĠE ast
ir un
Ġhawa manta
Ġwi yulin
Ġmay qan
unchaw nin
Ġhina tan
ĠV aca
ĠMa k
ani ta
Ġl awa
ĠMar garet
ĠChay raykun
Ġ18 23
pe za
iti y
anku man
Ġurqu kunam
Ġkuti chin
ala jara
Ġpus ana
Ġama Ã±a
ec k
rig ht
et ta
aran Ã¡
yun pi
ber ta
Chay anta
ĠPa dilla
bo ur
Ġf aringitis
Ġ15 51
Ġwilla kunata
org ani
Ġ9 9
ĠIs lay
ĠCar rillo
Ġ8 00
Ġachka ta
Ġkap urqan
Ġparki qa
Ġap ostol
kunan chikpaq
tt p
ver bios
Ġmas kay
ĠCo p
ĠWay chu
mp hi
ĠSi d
ĠSi wil
Ġwaq yaspa
Ġunquy manta
Ġawqaq kunap
à¤ ²
Ġukhu man
ĠX VI
rib u
Ġkash arqan
alla do
Ġtawa k
amb ik
amb urg
Ġe pinefrina
Ã¶ r
Ġsin ti
ĠBe llo
ĠAb dul
ĠÃ±a Ã±u
ĠAw qanakuy
eral d
ere dia
Ġmikhuna m
gal pa
Ġ190 2
Ġ190 5
Ġkaus ayta
Ġllika m
Ġsaywa pi
xi amas
ĠChaymanta pacha
IN DIA
Ġmusi yu
aman q
Anta marka
Ġ187 9
zi z
ĠQh ari
Anti kunapi
Ġ189 6
Ġminist run
Ġhunu manta
ĠChar lotte
ĠAd ela
Ale jandro
Ġlloq sim
ĠShi pi
Ġam eri
ĠAz ul
ER INDIA
ĠVir gen
Aws tiriya
ĠPin to
ĠAgu irre
Luk ana
Ġtiqsimuyu pi
Ġrakina kurqan
ĠNeg ro
ĠWe ber
ĠPatri cia
Ġau to
Ġqhispi sqa
tellan o
muru ku
ĠFitz carrald
tale za
ĠSas achakuy
Ġestrep tocÃ³
ĠTimo teo
urd uy
Ġgobi erno
ĠEj ecuti
ĠLud wig
ĠComi tÃ©
Ġkapita lista
ĠAM ERINDIA
ĠCÃ¡r denas
ĠAcos ta
! !
A dolfo
B en
C er
F re
G al
H il
J arani
K ristu
L in
L eo
M ir
M AQ
M ulli
N una
Q utu
S ant
S utisuyu
U C
U qu
W est
Y o
Y upa
] ",
b io
d Ã¡
f fi
j amin
k ins
l n
m ei
n atan
s ur
s sel
u pu
w isa
z h
z z
Ä ħ
ä º
Ġ astika
ch es
ay an
aq lla
kuna chu
Ġp os
ti er
ri e
ku wa
Ġh udyu
pa wa
Ġllaqta Ã±iq
Ġn atu
ka t
ka w
ka chu
ka ptinmi
ĠP r
us pan
ra de
ki wan
ki Ã±a
ĠA is
ĠA vil
Ġch il
ĠS UYU
Ġri pun
Ġri kunalla
Ġruna masin
ĠÃ± in
Ġki tinmi
ĠK ancha
ĠK ristiyanu
ĠH aya
ĠL amar
hi o
ĠU rq
ĠB ush
ĠW eb
ĠI Ã±iy
qu tu
ĠCh ill
ĠCh ac
ana ku
ĠT ama
ĠT uc
chaw pi
to co
ĠD atem
ĠG ue
ind ex
ĠPiruw pas
Ġu may
Ġay ninakuy
kch iq
Ġkaq hina
Ġpi ti
19 10
19 13
Ġmun ana
ĠAn drÃ©
ĠAn thony
ĠE le
ca da
ol aria
wi ce
hu an
hu ru
Ġhina llata
Ġin mun
Ġis m
Ġis raeli
kin chu
ĠChay wan
vi rus
Ġ18 29
Ġ18 41
Ġ18 57
Ġ18 86
Ġ5 8
uklla chishka
Ġmayu pi
Ġkuti qa
ce des
ce olaria
Ġhin apuni
Pi pas
et s
ĠRi co
Ġni kuq
Ġrima ri
ĠWa chu
ĠPa olo
ja da
bo x
Ġf ac
eg rande
Al tu
Ġ15 32
ĠCar l
ĠCar ol
ĠEs tados
Ġap un
ĠHu ac
ita s
ver de
ĠAy ti
ĠGu bir
ĠFran co
Ġunquy wan
ĠRan sis
Ġes tado
Ar turo
Ġre p
Ġkash anku
Ġv ol
ĠJo ya
Ġmuyu ri
Ġallinta puni
Ma x
Ġar hintin
amay ka
ĠPo ma
ĠGar y
tus ku
Ġwaqay chanapaq
Ð¾ Ð½
Ġhuch asapa
Ġmin utu
Ġkananpaq qa
gra mu
Ġumalliqnin si
Ġof fic
Ġmall kim
zar o
ĠQar awili
Ġqillqan chik
Ġanti biÃ³ticos
akun ti
Anta pampa
allampa kunam
ĠRos s
Ġukhun man
ĠQan kunaqa
ich ki
mon di
ede raciÃ³n
Gu illermo
Ñģ ÐºÐ¸
aytu cha
Ġtakichaqmi pas
Aw qa
ĠBil isi
ĠChurin ta
ĠhuÃ±u kuna
Ġhu chayuq
ĠSara kuru
Ġyachaywasi kunapi
ĠWal ter
ĠCi udad
ĠWil son
Ã±aw paq
ĠHan suyupa
ĠGal eras
Churi kuna
Ġmuksi chaqta
uran go
Ab d
Vic ente
Vic toria
Ġlaq hay
Tuk tun
ĠÃģn geles
KaÃ± ar
Ġlar unpi
Llu t
Ïī Î½
akin cha
ĠKas ma
ĠKura wara
gles ia
ĠCe cilia
usti cia
ĠMuÃ± oz
Ġej erci
Ram Ã³n
lismu man
ĠEg ipto
Macha qa
ĠCora zÃ³n
Ġcheq ni
Augus to
ĠAre quipa
Ġpiruw ki
ĠClemen te
ĠBud apest
Ġilik trun
ĠDak ota
Kaska Sutisuyu
áĥĶ áĥ
ðĲ Į
ĠLombar dia
Qallarina KaskaSutisuyu
bour ne
allado lid
ĠAvil Ã©s
: :
A si
B is
F i
G ar
H aw
K all
K usa
P ir
S uni
T utura
Y achaq
\ \
a kunanpaq
c ciÃ³n
d ral
i yu
m or
n ispa
o chu
o to
p Ã©
p unapaq
s ton
t ens
u v
z hou
Â «
Ä Ł
Ġ Ã¡
ta ble
ll ayki
un fo
ay ra
pi si
in es
aq ninmi
is pan
is yun
as ki
ar ta
wa Ã±usqa
Ġp ul
Ġp asa
ti fi
ku ptinmi
Ã± asqa
ru sqa
Ġsu b
Ġq orqan
wan da
ki chej
ĠA P
ĠC us
ĠS or
ap pas
ĠM ishi
iq mi
Ġmama llakta
nin tam
Ġa wan
Ġa Ã±ay
Ġa cti
Ġri puy
ĠÃ± uÃ±
Ġsuyu pa
chi r
chi ki
en c
ĠH amp
ĠL am
ĠL uri
ĠL ara
es qan
Ġ" -
ĠU S
ĠU lla
paq taq
ĠQ i
Ġqa way
Ġqa wasqa
qu ma
ĠCh ong
ĠCh anchamayu
li ma
Ch ayta
to ma
Ġchay kunaqa
Ġchay piqa
ĠD Ã¡
ci to
ĠG ri
ĠG ui
ĠG ustavo
Ġta riy
ĠUma suyu
ni mpi
Ġkaq ninkunata
Ġpi pis
ĠN aran
ĠAn der
ca bamba
Ġti li
ĠF ede
ons e
Ġ3 50
te rus
llan i
lu win
Ġur ayka
ĠMa kusani
Ġis klaw
ĠMar co
Ãĳ iqi
Ġc ui
ĠIn dunisya
asqan kuta
Ġhay un
Ġhay kuspa
Ġyachay manta
ĠO xford
Ġwatamanta m
chan an
kunamanta wan
ura ta
ĠMama ËĲ
Ġmarka piqa
va da
ber o
ĠAl b
ĠAr chi
ĠAr en
ĠAr thur
ba o
Ġmikh unan
Ġb ru
ĠQhapaq nin
ĠPar que
Ġ7 1
kurqan i
ĠKa mi
ĠIs mael
12 0
Ġkamayuq kuna
ero pu
ĠAma zonas
Ġyaku p
20 19
ĠRuna p
ĠHu a
ĠHu aman
akuy ta
ve ira
Ġ[ ...
ĠRe p
Ġwall qanqan
and ÃŃa
Ġqan kunaqa
Ġhampi na
ati q
Ġwas ip
pus aq
Ġallpa piqa
ĠCor pora
ĠBar ri
ĠBar tolomÃ©
Ġes piritu
Ġukhu manta
Mar y
Ġchun ta
gar t
Ġpaqari chin
ĠAya la
ĠKun gu
ĠPo tosÃŃ
Ġllim p
ĠSu peri
chinapaq qa
cal ipsis
ĠPh uyu
ĠRimana kuynin
ĠBe atriz
ĠmaÃ±a kun
Chuq lluqucha
Lli mphiq
Ðµ Ð´
Ġ190 3
Ġvi da
rÃŃ quez
Kaw saq
gan da
KUNA TA
ĠNo el
Î¹ ÏĤ
Ġtantanakuy pa
Yaw li
ĠYana pakuy
Ġ187 5
Ġ187 6
Ġchayam uq
Ġimayay pa
ĠCrist ina
ot ball
Ð» Ðµ
ĠJa ime
Gu ad
illan taq
Ġqhawan a
Ġmu yuq
ĠFer re
ĠJehov Ã¤
Kh allka
ĠBon garÃ¡
ĠHan suyu
Qispi qanchi
Alimanya pi
Ġpru phis
ĠWilliam s
yim bo
ĠDo uglas
Ġkawsari mp
ĠEmi lia
ĠJesuc ristoq
IC N
ĠRipuwli kap
ĠKuntur kanki
Ġ(? )
Ġchill ki
Lampa lliqi
Chiqa p
Ġyawrin mi
ukra tiya
ĠSura ta
ĠKapchiy pi
Ġsuper visiÃ³n
ĠNap oli
Ġger manu
sall pu
pud ungun
ĠestreptocÃ³ cica
C ari
C Ã¡
D ar
G UA
H uq
H ark
M aw
M usiku
N in
N apu
P aqta
P et
P AS
Q ara
S ik
S ajama
S ucre
T an
U K
W in
Y PE
b era
c am
c ama
c co
d ens
d ista
f uerte
l ar
m ÃŃn
r ya
r ero
v elo
y kuq
Ä Ľ
Ï İ
á Ī
Ġ er
ta ciÃ³n
qa sqan
ll ip
is o
is al
as ra
mi yu
Ġs ispa
Ġs il
Ġp e
Ġp eri
Ġp antasqa
ti do
Ġh ab
ya chiy
pa ku
pa llana
Ġllaqta kunapas
Ġq or
Ġq uspa
Ġq urpa
ĠP isi
ĠP umaq
ĠP ulgar
Ġnisqa kunapi
us ill
ĠA marakaeri
imi pi
ĠC ala
ĠS z
ĠS uri
ĠS tra
Ġd iya
ap ana
ĠM era
iq ucha
Ġm uq
ul yu
uq hu
on te
on io
Ġruna shimi
ĠÃ± anta
ill ims
Ġsuyu s
er ta
chi o
ĠK ana
ĠK uriya
ĠK han
ĠK Ã¸benhavn
ĠL EN
es h
Ġsimipi m
ĠU siyan
ĠU ICN
al an
ĠQ el
ĠQ upa
ĠW iktionary
ĠI llinois
kun ayoq
Ġqa ya
ĠCh ata
ĠCh arkas
ana ki
ĠT ap
ĠT at
ĠT api
ĠT irul
Ġman u
ĠJ ones
Ch iq
ci pa
ĠG ana
ĠY uyay
om ino
Ġkaws aspa
ach is
19 19
Ġmun do
ĠE t
ca b
Ġtu pi
wi cha
wi lla
hu ara
ispa mpa
unchaw kuna
Ġin for
Ġ18 80
apa qari
ak aq
Ġcha kata
Ġra to
de rick
ĠO la
kh ay
Ġiskay chay
Ġpay kunan
Ġham unqa
Ġham pin
Pi ru
rin kuna
Ġpar lan
Wi ra
ia o
za ga
ĠAr n
Ġpukll ana
sh Å«
Ġla chiwa
Ġrima sh
Ġimay uq
Ġ7 2
yay kuna
Ġpuri yta
ob le
aska chakuq
Is kusya
13 6
uc al
ral de
ĠRe publi
uw ina
ĠAy lluruna
Ġ0 9
pacha man
ati y
Ġ20 19
Ġtiy aqkuna
aku paya
ĠCor rea
aqu pampa
ish qa
Ġtuk unanpaq
Ġllaqtakunapi pas
ĠWar ayu
ĠMay ukillap
ĠPo pul
ĠwaÃ±u chisqan
ĠTo mas
Ġwaranqa ysu
oni ca
Ġphu tu
ĠAra b
Un ay
Ġvi ral
ĠSil and
War ma
Ġqhipa man
IN G
ĠHo us
Uru pampa
AS QA
ĠHina taq
rim m
Ġqhe pata
ninku wan
ĠRu way
ĠJan e
ich Ã©
Ã©r mino
Ġimayay kunam
ĠIma raykuchus
mon t
ot el
Ø§ ÙĨ
Ð» ÑĮ
ĠWiki media
Ġqay na
Ġtiksi cha
Ġ186 4
Ġash wan
gn os
Ġyachachin ku
kim sa
ĠLeon cio
ĠKal alit
Ja ime
siq uwina
ĠQillqaq kuna
ĠWanta r
Gen eral
ĠÄ Ĳ
rigo yen
Ġts Ã«
tuk ancha
ĠTri unfo
ĠCaj amarca
Ġtapurqan ku
Ġyachani chu
ĠCOSUDE p
ĠAwa hun
Roma gna
ĠHip Ã³lito
Ġnillarqan taqmi
ĠGros so
ĠayÃ± im
ĠEstra da
ĠFiguero a
Ġtradi cional
Ġarhintin u
ĠLEN GUA
. ",
C amp
C ami
C usco
H el
H ab
K uk
K im
P aymi
Q un
U Q
c lo
d Ã³
i qan
i talya
k isqa
l on
l Ã³
l ine
m ing
p uspa
p tiyki
u di
v ÃŃ
x to
z Ãº
z yn
Ä Ļ
Ġ ed
an kunaqa
ll anakuy
in in
Ġk asun
una ta
as aya
mi t
yu biyu
Ġp hawan
Ġll oj
ri zon
cha kuyta
Ġllaqta yoq
Ġq iwuÃ±a
Ġka kun
ĠP el
ĠP uliwya
Ġnisqa tapas
ra d
ki llaqta
ĠC ue
ĠS um
ĠS tre
ĠS yd
ap tinqa
ĠM ol
ur ÃŃ
uq kuna
uq wata
nin taqa
Ġa le
Ġruna sqa
Ġsuyu kunap
chi kurqan
Ġpa pata
ĠK ari
ĠK ub
ĠK uwa
ĠK emp
Ġw Ã±ka
ist ra
en ga
ĠL ista
ĠQ uw
ĠB org
ĠB anda
ĠW I
ĠW uliwiya
ĠR as
ĠR aj
Ġqa t
ĠCh am
chu yuq
chay mi
li an
li lla
tin pa
ĠPi cchu
yan ku
Ġt rans
ĠJ is
Ch uya
Ġchay paq
ĠD ami
Ġta ll
ip uy
ip aya
Ġu ti
ni o
19 35
19 06
kan ku
Ġpacha paq
Ġtu tapi
hu pi
Ġwan u
Ġwan ki
Ġl inti
Ġallin paq
kuq kunata
kunap ta
Ġ18 54
iy ki
Ka ta
de au
iti wu
ĠO m
ĠO drÃŃa
ut is
ut hiyu
Ġuy ayuq
kh o
Ġpus hak
Ġpuquy nin
Ġyacha qaq
Ġyacha kunchu
Ġati paspa
Ġham p
Ġham uni
Ãº Ã±i
ĠRo w
An ton
Ġ6 1
Ġ6 6
ĠAl ban
ĠAr te
kuspa qa
Ġf amilia
Ġastawan qa
ĠAs kha
ĠIs landya
ĠQull ana
Ġkap tinsi
16 0
Ġtari rqan
Ġtari pasqan
ĠLlaqta kunap
Ġumalliq mi
Mama llaktata
Is rayil
ĠHu ar
Ġchaymanta taqmi
Wa timala
bi lidad
Ġmusuq chasqa
Ġqillqasqan pi
inku man
chisqan ta
Ġriqs isqan
ĠÃ±awpa gradupi
ĠBar re
ck er
Ġre ac
Ġchur insi
Ġv as
ĠDe uts
Ġsuntur pi
ĠSo cial
ĠCol umbia
ĠRepublika pa
ĠPh insuyu
Qall u
ĠPal omino
gra do
ĠCa v
Ġpur is
Ġapa kun
ĠPor ras
Ġmunay lla
ĠHuÃ± un
chikun ankupaq
ten do
Ġche qas
rim era
Ġ187 4
Ġchura kun
ĠGre en
Ni co
Wan kani
ĠFi li
ĠAlf red
ĠSuy un
Bar ran
Ġmallkiq pa
Ġdere cho
simuyu p
ĠPeru ano
Ġpat sa
Ġyapa manta
CA CION
ĠChacha kumani
Was karan
Suy ruqucha
ide a
ide ae
llanku taq
ĠAng Ã©lica
gh t
ĠBos co
ĠBos ton
ĠImay na
Ġsac ri
Ġfor mula
Ġkacham usqa
ĠWama li
Wir aqucha
allma kunapi
Ġ(? ):
Ġuni versi
gles i
ĠQuin tana
Kap chiy
Ġsec tor
ĠMuÃ± ecas
ĠGali lea
bis po
Ġllam ka
Ġkachk arqa
Ġthansa kunam
Ġentien den
kaws ay
Ġyam t
Chinchi ru
waÃ± is
Ġem er
undes land
Ġqillqas unchik
ĠItur ralde
Ġkampi una
ĠGib b
PD F
Tom Ã¡s
Ġsaj ra
dagas kar
Chuku witu
ĠKacha chi
ĠPurtuyis kunap
ĠOta valo
Ġsind ika
ĠCorinti os
ĠSiwil chasqa
eropu erto
ĠRep Ãºblica
ĠCorpora tion
) -
A yu
I m
I t
J os
K hi
M en
M ark
N ic
P uÃ±
Q ur
R om
T ap
T sa
W ama
b ama
c ula
c encia
g no
i ana
i bo
j es
n un
s hu
s amay
s ub
u o
u za
w iq
x imo
z er
Ç İ
É ª
Ñ Ī
Ñ ı
Ø ©
å į
Ġ ÏĢ
ch kay
ch was
ay asqa
ay ruma
in neq
aq tiy
is hin
is kultur
ma ll
ma may
ar q
Ġs ina
Ġs ÃŃn
Ġp la
Ġp unchawpi
Ġp anu
Ġp rima
ti ki
ti tis
ku ya
ku pa
ku chkaptin
ku llantaq
cha l
cha pas
pa Ã±a
Ġllaqta paq
Ġllaqta tas
Ġq is
Ġq ich
tu ru
us qanku
ĠA ur
ĠA po
Ġch up
imi ro
ĠC ur
ĠC ant
uy pi
ĠM YPE
Ġsimi mantam
Ġm Ã¡
Ġm urunkunatam
Ġ1 15
on ato
Ġri es
Ġri pu
ill uta
Ġki r
Ġki chari
ĠK hi
ĠK it
ĠK hun
Ġi rra
Ġi wriyu
en si
ĠH apun
ĠL c
ĠL anthanu
ĠU qu
ĠQ ata
ĠQ ala
Ġkay tam
ĠB ing
ĠB asa
ĠB amb
ĠI z
ĠT hay
kuy pa
kuy llu
li ka
ĠJ ob
ĠJ itpa
ĠD r
ĠD oro
ci fe
ama l
ĠY ar
ĠY aru
ĠY unkuyu
la b
la us
anta y
Ġkaq llam
Ġpi Ã±a
re te
ĠAn qara
Ġall icha
ĠE us
ĠE CUARUNARI
tan ya
ĠF il
um en
ara chupa
Ġwan ka
Ġwi tnam
Ġmay un
Ġmay manta
Ġkama riy
unchaw niyuqmi
ĠSan tander
ĠÃ±aw sa
Ġima rayku
ull un
ĠMa in
Ġqucha wan
vi li
vi eso
Ġy o
Ġ18 82
Ġ18 52
Ġ18 87
Ġc al
ĠIn lish
Ll ank
Ġyachay qa
Ġra tu
Ġra qay
acha m
ash ka
Ġuy waq
ce o
Ġkar ka
Ġati pay
Ã¡n g
Ġwasi pim
ĠLl aqtan
Ġwill arqan
et ts
yki man
Ġwar mis
Ġinti manta
ĠAr turo
aqa qa
Ġkawsaq kunap
ĠWa Ã±uy
ĠPa ti
Ġnin kum
Ġf il
Ġastawan taq
Ġ15 33
Ġ9 6
Ġmuna sh
ĠQull pa
ĠEs tudios
Ġpukyu kuna
Ġsay arispa
Ġtari kuq
han g
po ol
anchay llu
Ġ0 7
ĠGu a
kuynin manta
ĠSi ul
Ġatin chik
ud Ã¡Ã±ez
Ġrisirwa piqa
ĠLe one
ĠNa zar
à¤ ª
ĠCor tÃ©s
ĠBar at
ĠBar roso
ĠSal cedo
fi co
Man araq
Ġchur arqan
Ġpaqari chiq
ĠPedro qa
Ð¸ ÑĢ
Ġsun qunku
Ġyuyay wan
Ã¼ b
Ġyanap ayninwan
ts in
ĠÎ £
ĠÎ ľ
se ille
Ġqhari pas
Ġsin ch
bur y
Car l
Ġhuch an
ĠDyus paq
ĠAw ki
Ã¤ r
ĠAnta marka
Ġphu ti
ĠMat o
land is
ulu mani
Ġkurku p
ĠJu dea
IS QA
IS BN
Ġqay llan
Ph aqcha
Ġwanku rina
Ġllimphiq mi
runa kuna
Ġpinchikilla chana
Ġtullu yuq
Ġkura ka
ĠMun isipyu
ĠChurin qa
Ã¨ s
Ã¨ ve
Bar tolomÃ©
ĠGer ardo
Ġyachachisqan kunata
Ġchayrayku m
Ġmunasqan man
ĠCi en
Ġmayqin chus
Har awi
Cal ceolaria
Ġraw r
Ġmunaspa qa
ĠCO NAIE
Hin aspa
Ġgra ci
Mis ti
ÅĤ aw
ĠDirec torio
Ġmiyu sapa
ĠhuÃ±usqa m
ĠpolÃŃ tica
puk yu
ĠBro ok
ĠDem ok
Ho lland
Tru hillu
ĠLlan k
ĠÙħ ØŃÙħØ¯
uf lo
ĠKko llu
ĠUk ranya
Emi lio
Uk ranya
log ÃŃa
Ġ{ {
ĠPhilipina kuna
Ġapull iq
ristoph er
ĠHit ler
ĠIspa Ã±ap
Hir siquwina
ĠHard y
IL ING
inchaq kunapta
å· ŀ
ĠBenede tto
uraz no
ĠServi cio
Ġoffic ina
ÃºÃ±i ga
9 00
B os
C aj
C lub
E F
E m
H inan
K ir
K il
L aw
L ari
L ey
N IY
P on
P en
P ando
R uq
R osa
T ika
T ig
Y ach
Y anaqucha
a kunan
c ari
c ona
e pi
f urt
j am
j ing
j uela
m ut
n Ã©
n ec
p rovin
t iste
u do
v at
v ol
w arqanku
Ã ĥ
á ¹
Ġ za
an anmi
ch uka
un e
un de
ay rimana
Ġk wa
Ġk ins
ma rq
kuna ri
Ġs uk
Ġs hi
Ġs ank
Ġp has
Ġp oq
ti ana
Ġll uy
ku ri
ku chi
Ġh ama
Ġ( ~
pa tapi
ru qa
ru si
Ġn im
ka paq
ka wri
Ġsu ch
Ġsu yay
Ġq ip
Ġq il
ĠP ulitika
Ġnisqa kunam
us Ã±i
wan chis
ĠA co
ĠA ve
ĠA tucha
ĠA kchiq
Ġma chaq
ĠC is
ĠC asta
ĠS Ã¡
ĠS unin
Ġwata kunapiqa
Ġr as
Ġhuk niraq
am ayu
am pasqa
ĠM ura
ĠM uj
ĠM uqu
ul aymi
Ġ1 18
on ga
nin paq
Ġa g
ĠK im
Ġw iq
pas h
ist ina
en ango
ĠH all
ĠL amb
ins yun
aw ita
ĠB ach
ĠB las
ĠB urinkin
asti ku
ĠR iq
ĠI wan
kun kichis
taq pi
at os
qu is
ĠCh u
ĠT sa
ĠT ayaqaqa
el pa
Ġchay taq
Ġchay si
ĠD ÃŃ
ĠG era
ĠG usta
ĠG Ã¡l
ĠG lasgow
ws ki
om ys
Ġu llun
Ġu mayuq
chasqa chu
ni e
ĠwaÃ± up
Ġkalindaryu m
19 25
Ġmana Ã±an
chis h
ĠE DU
ca ca
tan apaq
uch uk
ĠF ac
ara b
ara mi
ol is
), [
te ca
ispa qa
Ġj aqay
Ġj uez
ĠMa lla
ani lla
gu ay
gu es
Ġan ali
ĠMar an
iy pi
Ġc er
anku chu
ulla h
Ġama chan
ph o
ph yta
ptin ku
iya tiwu
qay lla
mana chu
ed er
ĠAr gen
Ġruw arqan
Chay piqa
ĠYachay taqpi
Ġchak ana
anpaq qa
ĠwiÃ± arqan
ĠPar k
ĠLa dislao
Ġ7 7
Llaqta pata
ĠEs ta
Ġ8 5
ĠHu amÃ¡n
Ġchi qaq
Ġkuyu chin
po da
Ġkamachi kusqan
Ġph is
201 8
Ġllaqtakuna pa
Ġli cencia
Ġwaq y
ini gal
Mar co
Mar cel
Par ya
ĠPas o
Ġv ulgar
atu s
upi ta
Ġrumi m
Ã¼ rich
che ll
olo gna
Ġjina lla
ĠRa hu
eb us
gi ca
Ġpampa chay
killa pa
Ima taq
ĠTo la
ĠVal er
âĸ ª
ĠCas as
Lli ka
Ġtak isqa
Ġpro yec
ig ante
ĠPor t
ikr asqan
ĠÃģ frica
Inka kunaqa
Inka wasi
ĠJu Ã¡rez
ĠTor ino
Ġ187 1
Ġrak hu
purqan ku
ĠJa Ã©n
ĠwaÃ±uch in
ĠwaÃ±uch inapaq
achiq ucha
ĠAqu pampilla
ĠWillka mayu
Ġliw run
ole dad
Ġqun chu
Ġlluqsi rqan
Ġhu qar
lay Sta
Kar l
ĠSuy tukancha
Ġchaki yuq
ĠTh eo
Ġha qay
Yacha kuqkunapa
payki chisqa
ueb ec
Ã±aw pa
Ġsipi rqan
ĠMu hu
ĠFo otball
enn s
ĠIndya pi
Ġllimphi m
'' '
ĠEr nesto
Ġkurkun pi
Ġwati q
ĠQhi pa
Ġkunankama pas
Ġsim p
ĠSiw as
ĠPall asqa
Ġtusuy mi
rik tur
err or
ĠMÃ© rida
Ġllaj ta
ĠIt Ã©nez
Ġtuy ru
umba i
ĠGuar dia
ĠCel endÃŃn
Ġpurina kunapim
Tum pis
geo portal
ĠBab il
ĠIru pana
ffer son
ĠFerr er
ĠIndÃŃgen as
Ġpuys tu
Qupaq hawana
Ġikwadur yanu
Ġtiemp on
ĠFede ral
Ġtaripasqan kuna
provin cie
ĠDÃŃ ez
ĠGÃ¡l vez
laySta tion
A KI
A punchis
B urinkin
C at
D W
E vo
G Ã©n
G onz
H ip
H amp
H ullaqa
L an
L uq
M E
M uch
M ic
M araÃ±
P ac
P allqa
P ampas
R ob
R uwaq
S uÃ±
S apsi
T aw
T uta
U p
U RA
U ficial
Y uyay
Z amora
a h
b amb
c at
g ins
g il
g lish
n um
o i
q hapaq
r unku
s ula
u in
y unal
Ê ²
Ù ĥ
á ½
Ġ čĊ
an paj
ta taj
qa ya
ch arati
ay chu
in aqucha
Ġk ari
is ismu
mi ll
Ġs pin
Ġp anka
ti mpi
ti dral
ri an
ri as
ri lla
ri entes
ya cha
isqa m
uk rata
Ġq uta
tu yuq
tu lo
Ġka tt
ĠP lan
ĠP ine
ĠP ariwanaqucha
Ġnisqa pipas
ra kuna
ki kin
ĠA paq
ĠA ug
ĠA ward
ĠA cade
ĠS isa
ĠS urinam
ap tiste
ĠM ANA
ĠM iami
manta pis
Ġsimi yuq
ul es
er is
ĠK ulum
ĠK ans
ĠK ambuya
ist Ã¡n
ĠH anka
ĠH ui
ĠH amawt
ĠQ uya
ĠB ang
ĠB ILING
ĠR uru
ĠR ab
ĠR uray
ĠI man
qu ista
ĠCh ap
ĠCh ala
ĠCh iqu
or ÃŃa
ĠT inta
kuy man
asqa chu
Ġman achus
ĠJ en
ĠJ ayupaya
Ch u
Ch ristian
Ġchay llapi
Ġchay raq
ĠD ublin
ĠG eno
la va
ip zig
Ġay chanta
Ã³ lo
Ġyu man
Ġkaq tinqa
19 14
19 27
Ġmana llataq
ĠN uqa
chis aq
chis unki
Ġmi ran
re g
Ġall iy
tan bul
Ġqallar iq
um bi
ara Ã±a
wi ti
ĠSan doval
ĠÃ±aw ir
ĠMa urice
gu ra
Ġan chay
ĠMar x
ĠMar uku
go ga
go za
Kay ampi
Ġ18 31
Ġ18 22
Ġ18 89
Ġ18 81
Ġc am
Ġ5 2
Ġ5 7
Ġcha pusqa
pe c
Ġra kh
llaqta pi
ĠO mar
ĠO klahoma
ut Ã¡n
Ġuy wasqan
Ġkuti pi
Ġkuti chirqan
ter n
Ġyacha china
Ġpay pura
kus unki
kus panku
Ġhin aqsi
Pi erre
Pi likula
Ġwasi qa
iya d
ec an
ga dor
ab Ã³n
Ġsi ki
Ġwar anqamanta
ĠAl va
ĠAl awsi
ĠAl mei
Chay qa
Ġb eca
Ġkus asqa
ĠÃ±awpaq enpi
Ġf a
Ġf iscal
anpaq pas
ĠwiÃ± aynin
Ġ7 6
ĠAnti kunap
ĠHatun mayu
Ġmuna rqanku
ĠEs pÃŃritu
Ġpuri rin
Ġumalliq si
Ġap ana
Ġqhi pata
ĠAma chaq
Ġqallarirqan ku
Ġ14 0
ĠZ e
ĠZ i
As ankaru
anchay ninta
ĠKristu wal
Ġkamachi man
Ġqan qa
ĠGu ill
asa ka
peci al
ĠLe oni
ini pi
ĠÐ ł
CH U
ĠSal om
Ġv ac
Ġsun im
Ġrunakunata qa
Ġllaqtakunapi m
Ġllaqtakunapi qa
Ġmunan chu
Way wash
Ġel ec
ĠÎ º
Ġyawar manta
Ġpukllaq si
llata chu
cal e
AN TA
olÃŃ tica
hay nata
Car men
ĠTo ribio
ĠTi to
ĠBa Ã±os
Ġdi os
Ġyuy aspa
aspan ku
anchik mi
Lli mphi
Ġtak sa
Fran Ã§ois
ĠSil via
Sal wadur
cul o
Ġqhipa gradupi
ĠhuÃ±una sqa
ĠEdu ca
Ġwaw qen
umb es
Ġllap anta
Ti tu
Ġtin ku
Ġyanapa kuy
Ø§ Ø
val do
ty le
psi da
Ġ189 7
Ġ186 3
Ġ186 6
Ġqara pi
illan es
ĠLor eto
ĠÃ±awi yuq
Ġhu qari
Ã¨ re
Ġyachaywasi kuna
Wiki liwrukuna
Ran sis
Ġmakin pi
ĠLuk simbur
Uy wa
ĠTantanakuy kunap
Ġut qhay
Ġkamaq ninmi
sk y
Å« shÅ«
Ku ba
Ġpru tun
ĠOl ga
Ġquy ta
Willka pampa
Ġpukllaykamachiq mi
ĠÃĳaw ikaruy
Aws tral
ĠJerusal en
Ġme di
ĠhayÃ±i yuq
rand t
ĠWank asanku
Wis aw
ukra tiku
Ġlli pin
ĠShu war
Ġcasos manta
ĠFundacion qa
Ġecon Ã³mi
Hen ry
ĠWik is
ĠDim ukratiku
Ġumallin apaq
ĠIÃ± uku
ĠWitn ampa
ĠAjina manta
Ġqolq eta
illimsay aq
kista dur
ĠJallp Ê¼
ĠuÃ± naqa
ĠHero des
ĠJesuk ristoq
Ġbarri ukuna
ladel phia
luwin ya
ĠSuperi or
Ġsacri ficio
ĠBasa dre
ĠAlmei da
A ka
A pustul
C D
C y
C entro
I KUNA
K ill
M ani
M aya
M ac
N aska
P uwpu
Q hu
S ala
T un
W uliwya
W aqa
Y aru
a chiyta
b on
d ay
f esi
h Ã¡
i hiku
j atun
l ya
n is
p Ã¡
s isi
v y
v ania
z y
Ã ¹
× ¨
ta in
un ismo
in burg
is on
is ario
ma to
ma la
mi ca
Ġs pa
yu yay
ti da
ri may
Ġh irka
cha kunaqa
lla tan
ru kuna
ru ki
ru pun
ru gal
Ġn ap
tu qa
ĠA Y
ĠA ce
ĠA LL
imi r
ĠC ru
ĠC api
ĠC esar
ĠS hina
ĠS eminario
am u
ul ar
nin kunam
Ġsuyu kunaq
er mo
Ġpa pil
ĠK awa
ĠK enn
ĠH eredia
paq chu
ĠQ anqa
ĠQ untumasa
ĠB ill
ĠB UH
arqan taq
ĠW allqa
ĠW ei
ĠR untu
ĠR urun
kun ayki
qu ÃŃ
Ġ2 10
ana j
ĠT U
ĠT aw
Ġya llina
Ġya Äī
tin g
ĠPi chqantin
Ġt rigo
Ġsuyupi m
el and
ari chin
Ch aqa
Ġchay n
Ġchay tan
ĠD omin
ci um
ĠG on
ĠG el
ĠG ir
Ã¡ te
ÃŃ ni
Ġllaqt anpi
Ġ19 15
Ġas i
la go
Ġrunakuna ka
ni ki
19 20
ĠN g
Ġmun i
Ġmi chi
kay qa
pu ru
Ã© leg
Ġpacha kutiy
Ã±a k
uch ka
ara chi
ara goza
Ġkiti qa
Ġwi t
Ġj all
Ġkama risqan
Ġhina pi
ĠV alladolid
ĠLi teratura
Ġin kas
lli y
ĠMar ce
ĠMar ino
ĠChay mantaqa
vi c
vi ri
ĠWi Ã±
ĠWi ra
Ġ18 39
Ġ18 45
Ġ18 84
Ġc l
Ġc ruz
Ka llawaya
pe rio
de en
anku m
ash arqanku
Ġqhapaq pa
Ġmayu manta
Ġkuti y
Ġkach kaptinmi
Ġiskay mi
llam pu
ph un
Ã±ay kuna
qay pi
mana kuyuq
rig al
Ġpuch un
ed y
ĠAl var
anan chikpaq
ba jo
aqa ru
Ġway llaq
Ġrima s
Ġimay kana
rus sel
th us
ĠCar rasco
Ġchakra pi
Ġchakra kunapi
Ġsay apa
Ġ17 0
Ġaswanta taq
ĠMi ra
Ġap anqara
Ġyupay chaq
Ġyaku qa
Ġg ran
uel o
han ul
Wa Ã±uy
Ġ0 8
Ġph aq
bi e
kaq ucha
mo uth
ĠMo ore
asa j
Ġli y
Ġen tre
aj o
Ġwawa kunap
ĠÃĳ uk
Ġuyar in
min edu
ĠPas cua
ĠMon talvo
kunku man
Ġkimsa k
ĠJo Ã£o
Ġ24 0
kusqa y
ĠMana taq
Ġyanap asqa
ĠUn u
ĠUn quy
Ġatiy ninwan
Ġchaypi taq
amay pata
Hu ac
gi as
se e
chas ki
uÃ±i chiy
ĠAb d
Ġkallpa chay
ĠVi eira
ĠVal paraÃŃso
ĠKama sqa
Ġyuy ari
Ġqo ri
Ġqo llu
Ġpur isqa
ham ed
Ġraphi yuqmi
Ġqispi chiq
uqu Ã©n
Sal inas
ĠPor tugal
Ġtanta chisqa
ĠHuÃ± una
Qull pa
Qull ana
waq chu
Ġsunqu wan
Ġsunqu yuq
ev allos
rim er
anam ayu
ĠÃ±uÃ±uq mi
ugus law
Ikwadur pa
Ġqhawa pay
ĠWall pa
ĠWall anka
ĠCal vo
Ġwawan ta
ĠWas kar
ĠVel Ã¡zquez
ĠRey n
Ġhata riq
Ġrimana kuspa
ĠCom ercio
ĠPro greso
ĠSim on
Ġmill ayta
qh ayta
Ġwatan tin
ĠPeru ana
ĠChik la
ĠJehov ata
usillu kunam
Sa int
ĠAk tinyu
ĠBon n
Ġwarmin ta
Ġqutu pi
ĠBan tu
ĠLan ki
enn is
Pampa marka
Ġphaw aq
Killa qa
Ger mÃ¡n
inc ent
Ġmanchari kuychu
Ġkiki llan
yl vania
ĠCata lina
Ġqhepa man
Ġchiki chasqan
ĠGeorg ia
Indi hina
Ġuywakunap pas
ĠPatri ck
hama kuna
Sim Ã³n
cien ci
Er nesto
ä¸ Ń
Ġservi cio
ĠEugen io
Luc as
ĠJohan n
ĠHill s
ĠFundacion pa
ĠGama rra
ĠAnton ia
ĠwaÃ±usqan manta
ĠÃ±awiriy wasi
ĠØ¨ ÙĨ
Ruraq pa
Ġonq osqa
Ġwarku kuq
Ġkasu kuq
Esc uela
ĠDepor tes
ĠFuen tes
Phar si
ĠEjecuti vo
Ġ[... ]
ĠSiland aq
ĠSyd ney
uthiyu paq
ĠGera is
enns ylvania
= "
A B
A mpa
A ziz
B aptiste
D on
E tique
H or
H um
H ig
K isa
K anada
M S
M all
M il
O H
O li
P aq
P umaqucha
Q S
S V
S uq
T er
T ara
T ren
W ayu
b um
c Ã³
c ÃŃa
e mi
e pa
f ia
f fa
h ap
h en
h at
h anaq
k Ã¤
l en
l awa
n ÃŃy
s n
s uma
s uqta
t pi
u manta
u ga
Â ±
Ã ľ
Ð ļ
å ħ
å ľ
Ġ ĠĊ
Ġ amp
ch y
ch wan
pi ti
in ga
in rich
aq pi
aq hi
Ġk uku
Ġk uka
ma pi
ma li
ma mani
ar Ã¡
ri anu
Ġ( âĢł
lla k
Ġwa cha
uk unku
ka chan
tu ma
tu re
Ġka llan
ĠP uyu
ĠP ero
ĠP uc
ĠP elileo
Ġnisqa kama
us l
us tino
ki tus
ĠA G
ĠA chu
ĠA mp
ĠA sia
Ġch uya
Ġma qaq
ĠC ro
ĠC all
ĠC and
ĠC uen
ĠC atherine
ĠS all
Ġhuk ni
ul ata
Ġllaqtapi s
Ġ1 19
nin kama
Ġruna taq
Ġsuyu kunapiqa
chi ra
ĠK B
ĠK ultura
ĠK ankallu
anqa chu
ĠL us
ĠL anka
aw asi
aw ara
os em
ĠU m
ĠU khu
ĠB ei
ĠB ulgarya
ĠR is
Ġ2 30
or ani
ana ju
ĠT ir
ĠT umawi
Ġya pari
chay manta
si ppi
ĠPi kuta
Ġt es
Ġman ka
kama rka
ĠJ as
ĠJ ers
ĠD ra
ĠD il
uri ma
ci dae
ĠG ris
ĠG eo
ĠY uk
Ġta puna
ÃŃ l
Ġas inda
Ġkaws ananpaq
Ġu tu
Ġu llu
ro l
aqta qa
Ġay chan
ni ypi
ĠN isqan
ĠN anay
chis pas
kay ninta
ĠAn ka
Ġall wya
ĠE con
Ã±a pa
Ġtu llun
chik man
Ġmay wiy
Ġj uz
unchaw niyuq
ĠSan kt
ĠV e
ull pa
Ġuma pi
ĠMa z
ĠMa ti
ĠMa didi
Ġin kum
ĠMar ta
vi ra
Kay mantapacha
chin an
Ġc ap
Ll amp
Ġcha cha
Ġyura kunatam
Ġyura kunapas
Ġra hu
Ġra dio
acha lli
kus unchis
Ġati rqa
Ġati pana
Ġham uchun
Ġama cha
Pi chincha
Ġwasi chasqa
Ġpar la
tawan pas
utu y
An t
Ġriku chirqan
Ġ6 2
ĠAr osem
uku sqa
Ġb ote
qaq tan
10 2
eg os
anpaq mi
Ġtar pusqa
ĠIs la
ui gi
Ġ8 9
Ġ17 81
Chi ku
par qa
Is mael
Ġg risya
Tayta ËĲ
unchay nin
ĠZ Ã¼rich
Ġkasqan man
illa manta
Ġsaq er
Ġ0 6
Ġph ransya
Ġhampi kuna
Ġtuku chin
Ġquyllur kuna
chkan chik
uspa taq
Ġwaq kuna
ayku ta
ĠJuan pa
Ġunquy kuna
ĠLo cal
ĠCor te
Ġes c
Ġes ta
las sis
ĠÐ ĵ
Par is
uchu m
aykipaq qa
ĠSal ta
ĠMon tero
Ġwillay kuna
ĠJo e
kusqa yki
Ġmuyu pi
Ġmuyu riy
Ġyanap arqan
ĠCol orado
Ġchanin ta
Ġllaqtan kuna
ĠAle mani
Ġpampa kunapi
Ġnisqan pi
Mi tan
Mi chel
Ġkusi kuy
Ġsin ru
Ġsin chiyasqa
chej paj
Ima raykuchus
ĠmaÃ±a kuyta
bur go
Car ta
ĠTo tora
kunapa j
Ġsuyun in
ĠVi la
ys tem
sis sippi
oni ki
Ġkananpaq mi
Ġrun tun
Ġnis unman
ayka ws
Ġse mana
Ġkapchiy pa
Ġruway qa
be ria
ans an
Fran cis
ĠSil ves
Ġkamachiq kuna
ĠPor res
Ġkurku pi
Ġqhatu chaq
Ġkawsan apaq
Ġrikh ur
ninku pi
Mo vimiento
Ġqay llapi
ĠJuli Ã¡n
En tre
ĠPra ha
Qh awariy
Ġ186 2
Ġrimaqniyuq mi
kap unqa
cri pt
ĠBil bao
Ġpaqta chani
ĠTiksi muyuntin
Ġand ina
ĠDavid pa
ĠAd am
Ġyachachisqan kunaqa
ĠFer mÃŃn
ĠWal ker
No th
Îµ Î¹
Ġapu kuna
ĠSar asara
Ġempres akuna
Ġkamaq ninsi
Ġmaman pa
ĠYay ayku
ĠSap ara
Ġsapan chasqa
ĠCu ba
Ġchink asqa
ĠBoli vi
niq ta
ĠFre e
ÑĤ ÑĢ
ĠQue vedo
ĠYan isha
ess andro
ĠEr nes
Ġchuk cha
Por to
Walla qa
ux Ã±a
hil yu
ĠKuta wasi
Ġankalli kurqan
AKADEMIE qa
ĠRay mondi
Ġimayman ata
Ġacha la
ĠEspin ar
unchaykunapi n
ĠDal ence
mac ula
ĠMuyu pampa
Ġnapay kuy
Ġupa lla
ĠPutu mayu
ĠMed ina
ĠGarci laso
Ġuwi ha
Ġmakiyasiq mi
ĠPaqa qi
ĠEspiri tun
Pur tugal
ĠManta ru
Ġkulun yan
ĠTos cana
esal oniki
ĠQhawan akunti
Boli via
Ġameri cana
ĠPopul ar
rizon te
ĠKemp ff
ĠEDU CACION
Awstral ya
anaju ato
ĠJers ey
ĠArosem ena
4 50
A G
A wa
A pay
A wankay
B ia
C am
C oni
C Ã³rdoba
G a
H ol
J uk
J im
K ach
K ani
K utu
K ultura
L UH
M aqanakuy
N ap
N ata
N ueva
O O
O Q
P ik
S ika
S unin
T aka
W acha
W ashington
Y am
a kunqa
a Ã±as
f u
f ano
i chaq
i ral
j Ã³
k hata
k orqanku
o ya
p re
r uni
s er
z t
z co
z burg
ä ¹
å Ń
Į Ĺ
an chana
an kichu
Ġk uchu
is pas
ar ki
ar pay
ar ayku
Ġp aq
ti kuna
ri ana
cha p
lla i
Ġn e
Ġn iyatiwu
uk ya
Ġq uyan
Ġq urqa
Ġka ta
ĠP ru
ĠP es
ĠP aranÃ¡
ra pi
ki paya
Ġch ara
ĠC r
ĠC osta
ĠS upi
ĠS usan
ĠS unqu
Ġwata q
Ġr ina
ĠM ayta
ĠM ey
ĠM ung
Ġm uri
Ġm ish
Ġm uth
Ġm ecan
Ġ1 000
nin g
nin tapas
Ġa da
Ġri kusqan
ĠK ill
ĠK ong
Ġi chh
ĠH es
ĠL yn
ĠL uther
es ha
ĠQ ulla
ĠQ he
ĠQ hatu
Ġkay kunawan
ĠB y
ĠW uliwya
ĠW aranka
ĠR en
ĠR enÃ©
Ġqa yay
at es
ĠCh ur
ĠCh uma
chu co
ĠT hu
Ġsuti p
tin ta
Ġt ecn
Ġt error
qar qa
ari kuy
ĠJ uni
Ġchay pis
ĠG od
ĠG old
ĠG obi
ĠG loria
ĠY uy
ĠY eru
ĠY achaq
Ã¡ tica
la qa
ro z
ni m
di ente
Ã³ f
Ġkaq kunapas
19 17
19 29
kan uku
re b
pu ya
ĠAn da
ir q
ca lla
uch kan
ĠF in
chik kunapi
hu e
llan an
llan chay
llan pim
Ġmay manpas
pay kuna
Ġj o
Ġkama rqa
ran za
ĠV is
Ã³n dor
has qan
tun i
Ġl amar
Ġl aqha
vi dad
Ġ18 65
Ġ18 56
Ġ18 83
le Ã³n
Ġc ristiano
ĠIn f
Ka mi
ĠSimi qa
Ġ5 6
urin thu
Ġra m
ac k
chiq mi
iw riyu
ce i
Ġati kunchu
Ġama taq
ĠLl ama
Ġtukuy pa
tawan mi
ab al
18 71
et t
mara pa
ed ras
yun qa
ĠDios pi
Ġwar m
ĠAl cides
Ġkitilli kunapi
ĠQhichwa pi
Ġkawsaq kunam
Ġway u
In lisya
ĠWa wan
sqan ta
Ġb y
Ġb awtis
ĠMaman i
ĠPa ÃŃs
Ġchak ray
Ġ15 5
Ġqillqasqa m
Ġ9 1
ĠCar lo
Ġ8 1
cion ario
ĠKi ch
Ġparki piqa
Ġpuri rqan
ob al
ano va
par ispa
14 0
Ġaran wa
ver pool
ĠZ ÃºÃ±iga
Wa chu
Ġ16 0
ag us
Ġ10 3
Ġqan kunapas
dor e
Ġatin kuchu
Ġli br
Ġwaq ll
Ġallpa p
isi li
Ġchani yuqmi
Ġes tudi
ĠÐ Ķ
Par tido
Ġwakin taq
ĠDe f
Ġatiy wan
ĠPacha k
Ġniy ki
ĠBrasil pa
Ġakll ana
Ġ26 0
aqtin chus
Ġwaqay chan
se ll
ĠFern and
Ġriqsi rqan
der land
Ġindihina kunata
Buliwya p
Kan cha
ĠTi tu
ĠTi erra
ĠQu taqayta
ĠTe jada
ĠBa h
Ġdi rec
Ġchall waq
ĠCa Ã±
ĠCa uca
ene cio
Ġkh uyay
Warmikuna ËĲ
ĠSeÃ±or ninchis
Ïģ Î¬
Chinchay suyu
Ġpukllay kunam
akun man
llana manta
del berg
Ġkaw ll
Ġ187 7
ĠÃ±uÃ±uq kuna
ĠQh eswa
Ġpaqar isqan
ĠJuli e
Ġqol qen
Ġ189 2
ĠHar rison
kuwan i
Ġ186 7
Ġash ka
Ara bya
ĠCÃ¡ mara
Ġci r
Ġci udad
qh ari
ĠAll ende
Ġmakin ta
Ġkamachina manta
189 5
Tar ma
ĠMamallaqta pura
ĠiÃ±iq kuna
Mon t
ĠÃ±o qanchis
Ġqhawari kun
Ġwarmin wan
Ġtiempo pi
Qan chi
Qhi pa
ĠFre d
ĠLeon or
ĠAwstral yap
Ja Ã©n
ĠCH AY
ĠAli cia
aqnin kunaqa
ĠPak istan
Aws anqati
ĠUt kupampa
ĠAgu ilar
lad ish
Ġmanchari kuy
Ġkiki llanta
Wasi chay
ĠHuch usuma
reta rio
ĠGuad alajara
Gi useppe
ĠÅ ł
ĠMacha ca
ĠKunris un
ĠAmeri ca
ĠDE G
ĠOro peza
Chun kantin
Muyu pampa
ĠQa hira
Ġthas kiy
ĠNin asuyu
inkina kuynin
Ġnisqanman jina
ĠGali le
ebre os
ĠPuq una
Ġpu bli
ĠTal ara
urs os
ĠKir k
Ġqhapaqsuy un
chill anmi
hiyup ya
Yun kay
Gre go
Ġregi on
Ġefec tos
olÃ³gi co
ĠSp rin
ĠWo od
ĠChuqui mamani
ĠKach arikuna
ĠRoca fuerte
Ġsusya lista
ĠAwtun umu
ĠOrgani za
Ġlagar tu
Ġrespira tori
Ġministrun mi
Ġtili wis
ĠRow ling
Etique tas
ĠMung ul
urinthu yuqkunapaq
4 40
B ru
C P
D a
D en
D omingo
E us
G iovanni
H ui
H isus
I barra
K unka
K anmi
K ash
K uya
K ustarika
L ev
M y
M aq
M uÃ±
N iqir
P im
R um
R eg
S tan
T uq
U tu
U chu
W allqa
Y unkuyu
c oni
d s
d um
d le
h ala
i us
i chasqa
k es
k chu
l Äħ
n asyun
p df
r ÃŃo
s untur
s vg
u man
u pas
v or
y de
Ã Ł
Å ĳ
í ķ
ta ka
pi sqa
Ġk unt
una pi
is iy
Ġp uchu
Ġll ull
ri p
ku tin
man an
man ka
pa pi
Ġllaqta kunawan
Ġllaqta runa
ru yu
ru ku
ka ll
ka chaspa
qan kuchu
qan tay
Ġka usa
us tani
wan u
ra pa
ra ju
ĠA ka
ĠA us
ĠA dolf
Ġma cha
Ġma Ã±ay
ĠC ana
ĠS ip
Ġd er
ap uku
ĠM y
ĠM umbai
Ġm uj
uq mi
Ġ1 12
Ġa gu
Ġri rqa
Ġsuyu man
Ġsuyu kunapipas
Ġpa kta
ĠK ul
ĠK il
ĠK ali
ĠK aranka
ĠK awallu
Ġi talya
ĠH ap
ĠH ama
ĠH ue
ĠH amburg
ĠL yon
ĠL osada
hi lista
aw chi
aw sha
ĠU ch
ĠU ra
ĠW ayu
ĠR ispampa
Ġqa tin
Ġqa ray
at han
qu chiq
ĠCh us
ĠCh av
ĠCh achas
chu ri
ĠT res
kuy niyuq
Ġt ro
Ġt unqu
ĠJ ES
ĠJ uqhu
Ch o
Ch aw
Ch arkas
Ġchay tam
Ġchay wanmi
ĠD ani
ĠD oc
Ġqh asi
ĠY anaqucha
ĠY rigoyen
om unismo
Ġas ipay
Ġu ll
anta leÃ³n
ucha pampa
Ġay lluruna
Ġkaq kama
Ġkaq ninta
19 01
19 22
kan am
ĠN ik
Ġmi litar
Ã© llar
llu m
Ġtu paq
uch in
asi pas
ons tantin
wi chu
ha il
Ġwan ay
unchaw mi
ĠV in
Ġima paqpas
chiy kuna
sa u
Ġl engua
gu ci
Ġallin kunata
ĠBuliwya pipas
Ġis pay
ĠChay pin
Ãĳ an
vi ejo
Ġ18 16
Ġ18 14
le x
iy qa
ĠSimi ta
Ġyachay siy
iti piqa
ĠO hio
ut or
Ġkawsay manta
ulla lla
ash aq
ash aqtin
kh uq
ter os
ala ki
Ġpus arqan
Ġpus itiwu
Ġyacha tsi
Ġyacha chirqa
ĠChi paya
ĠChi huahua
yki li
An gel
Ġ6 8
ĠAl cal
Ġqhaw arisqa
anan pi
Ġpukll aymi
Ġaw tu
Ġb u
Ġb oli
Ġqallari ypi
ĠwiÃ± ar
ĠPar l
ĠAs ociaciÃ³n
ĠAs anaki
Ġkachkan ki
Ġkachkan chik
ĠMan uripi
Ġmuna pa
ĠIs tanbul
ĠQull q
ĠEs pejo
15 6
Ġsay an
ĠMi chigan
Ġtari q
ĠRuna kunap
Ġo rig
unchay qa
ĠZ o
ĠRe cife
pun ti
anchay man
Ġhinallataq si
Ġris h
ĠAy ll
Ġkamachiy kunata
Ġhampi y
ĠSi g
ĠSi Ã±ur
Ġli cen
Ġrisirwa kuna
Ġrisirwa kunapas
Ġallpa man
isi ones
llin i
à¤ ¸
ĠCor ona
Ġsut isuyu
ĠMari aqa
Ġuyar isqa
CH A
des h
Ġkas aq
Ġkas ha
Ġkaynin man
arqa taq
ĠMon ro
inkisqa m
Ġ28 0
kusqa Ã±a
ko ki
avi are
Ġyuyay kuspa
Ġmunan chik
Ġind u
Ġsuntur pa
che andÃŃa
ĠUni das
uqa lla
ĠAm pu
men te
ĠPo li
llata k
Di rec
Ġnina pi
Ġpampa man
Ã¶ n
ĠPh ransya
Ġkusi kun
AN K
Ġsin ri
ub l
ĠØ Ń
Ġchaq nam
Ġkallpa chan
ĠIwrupa manta
ĠPal mas
Ġphu ku
Ġalli chasqa
Ġof ic
Ġpachan kam
Ġpur un
ham med
Pacha kamaq
usqan manta
ĠPuk allpa
inis ya
Ġllimph isqa
War ayu
od us
ĠHo ward
ĠYuraq yaku
Ġhur qu
Ġyay kun
ĠCamp es
ĠMen del
ĠKar tulsuyu
ĠBeni to
à¸ ´
tÃ¡ y
ACH A
aykichis ta
ĠSantu kuna
pari rqan
ĠPro videncia
Bar celona
kuptin pas
Ġmis ki
Ġrurana kuspa
Sh awsha
Ġmaqana kuspa
ĠPata llaqta
ĠAnd ina
hir kinchu
Ġyawri kunam
ĠCu Ã©llar
etro poli
Qan kunaqa
Ġchaqru spa
Ġser v
esa da
Vic tor
ĠOli veira
Ã³rdo va
ĠCons tan
ĠTiksimuyu pi
Ġtan qan
rÃ© dÃ©
Ġab ril
Ġcuer pon
tic ut
Ġkis war
ĠDem etrio
ĠAmeri kaq
Hampi kamayuq
Ġahina pin
He ath
ĠQa taq
ĠFrank lin
lly wood
Jesus taq
ĠLak e
Ġallpan kunata
ĠMikh una
à§ į
ĠKat isismu
ĠChiqa p
ĠFrances co
Sus ya
ĠDes arrollo
aye que
Ġkriy iq
cÃ¡ zar
isami yoqmi
ĠBir d
ĠtÃ©c nico
Ġfinanci ero
Bern ardo
sz awa
Ġllip t
Ġjayk Ê¼
foli um
yuna lista
Ġbac teri
resti as
kway ur
acon as
Ġmishi kunapas
chino psis
ĠFerre ira
ĠHous ton
nec ticut
Ġwatiq manta
MaraÃ± un
Pilikula kuna
rÃ©dÃ© ric
A u
A Ã±
A bya
B ella
C li
D uminikana
E Q
E le
G r
H at
I chi
K um
K ashapampa
M ati
N oqa
P P
Q uni
Q uya
Q uer
R is
R apa
R upa
R enÃ©
S all
S ab
S ura
S he
T E
T hu
U rq
V all
a kunamanta
c uta
e ria
g ol
h ampa
i f
i chiq
k ya
k on
k anta
l om
m uni
n h
o tu
r ayuqmi
s uti
s yapi
t rib
u mani
v ision
w en
w aran
Å Ļ
Î ²
Î ł
Ö ¼
é ĥ
Ġ os
Ġ ÏĦ
Ġ à¸
ta k
ay kurqan
pi ra
pi pis
in go
Ġk ha
Ġk astillanu
Ġk uchun
as man
as uni
as mayu
yu j
yu punti
Ġp en
Ġp ani
ti dae
ri wa
ri pa
ri zo
Ġh ora
cha kunatam
pa wan
ru mi
Ġwa p
Ġn ak
uk ap
ka chana
ĠP ari
ĠP uÃ±una
Ġnisqa kunamanta
us u
ĠA v
ĠS acha
ĠS ut
Ġwata Ã±a
Ġwata kunamanta
Ġd on
uy os
uy chu
Ġsimi paq
Ġ1 13
nin kunatam
nin naq
Ġa wa
Ġri yta
Ġruna kunayuq
ĠÃ± irqan
ill y
ill ca
Ġsuyu ta
chi p
chi pa
chi kuyta
chi tiya
ĠK um
ĠK ab
ĠK uma
ĠK har
ĠK allpa
ĠK AM
Ġw ara
Ġi ta
Ġi yun
ist encia
Ġkay an
ĠB ologna
ĠB russel
ĠW aru
ĠI li
Ġqa lla
Ġqa sa
ana kunata
ĠT uq
Ġsuti charqan
si Ã³n
ĠPi ura
Ġt er
Ġman apas
to mas
Ġchay aspa
uli a
ĠD ec
ĠD urango
Ġqillqa mun
Ġta ris
Ġta pusqa
Ġas ukar
Ġru pha
ip un
ĠPiruw man
Ġu Ã±a
Ġu was
di d
Ã³ l
Ã³ dico
ĠwaÃ± unanpaq
Ġyu thu
Ġpi qpa
all man
kan kuna
Ġllamk ay
ca Ã±a
tan ika
asi o
ĠF lora
Ġaswan tam
hu ac
Ġrikch asapa
unchaw mantam
Ġima paq
lu ru
ĠLi e
ĠMa gal
Ġl at
na cion
way chu
Ġis qon
ĠMar bÃ¡n
Ġ18 26
Ġ18 36
Ġ18 34
ĠIn ga
ĠIn macula
Ġhay wariy
Ll an
Ll ama
Ġyachay sapa
Ġkawsay kuna
Ġkawsay man
ĠDi c
Ġyacha qayta
ce to
Ġpay taq
ĠChi c
Ġham u
ĠRo que
ĠWikipidiya paq
18 3
18 73
Ġtaki kunata
Ġmus quy
Ġ6 7
ĠAl bert
ĠAr mando
Ġkamay pi
Ġkamay paq
uku spa
Ġruw as
Ġmikh ukun
Chay na
Ġhanaq pacha
In g
Ġb as
pin d
ĠPar uru
Ġwilla kuynin
Ġwilla kuyta
ĠMan chester
ĠMan gl
ĠCar m
ĠCar ranza
15 1
Ġachka m
Ġkap ka
gen a
Chi l
par inku
awan qo
Ġyupay charqanku
kunan pi
Ay cha
araq ullu
pura ki
Ġyan uspa
pun tia
Ġ16 1
ĠAy ora
eo grad
Ġkamachiy pi
Ġqan wan
Ġtuku ri
awi Ã±a
Ġkarqa spa
Ġkunan pacha
ĠPay taq
Ġtiy aspa
ĠAri zona
Wikis imitaqi
à¤ ®
Ġukhu piqa
ini chu
ĠÐ Ŀ
Ar mando
uchu pi
Ġre vista
des to
eri fe
Ġkash ani
ĠNi eves
Ġv ÃŃas
ĠAya waka
iru yuq
ĠQillqa manta
ĠHin aptinmi
ĠTayta kura
mas o
Ġatiy niyoj
amb alle
ĠUq llu
Ġllaqtan manta
llata taq
Ġsan amp
ĠSu yuq
Î± Î¸
Mi raflores
ĠBe ver
Ġchaq na
ĠmaÃ±a kuq
Ġsuyun kuna
Ġraki rinkuna
Ġdi f
tur unku
Chuq ui
ĠAnta r
Ðµ Ð½
ven ir
Qillqa y
Ġimayna ta
Ġapa chi
Ġtanta lli
me di
anay paq
Ġkawsan ankupaq
ĠQui roga
Ġtantanakuy kuna
Ġpata kunapi
ÙĦ ÙĬ
Ġkaqta qa
col n
col Ã³gi
ĠGonz ales
Ġca pital
Ġunan chay
Ã£ es
dio ma
ĠJa cobo
Ġ189 1
ĠJose fina
Ġruwasqan ku
Ġkawsaykuq kunam
titu cional
Ã³ni o
Ġispa Ã±a
ĠPawlu p
ĠCom unidad
Ġtay tanqa
ĠTh om
gos to
Cor onel
ĠiÃ±u yuq
ĠSar wa
ĠGi useppe
Ġwik say
Yacha chikuq
ĠShi lla
Ġwaqachina kuna
Ġinter na
Ġsuy t
ĠVer de
Wak cha
Ġapaq kuna
ĠHinallataq mi
ĠSol ar
ĠRusiya pi
Ġrimaynin kunam
ĠRumi Ã±awi
Chayrayku m
Ġatirqan chu
Ġqespi chisqa
ĠChan kay
ĠHur watsuyu
Ġpusapuna m
Ġfi ebre
ĠRob les
nawa l
Ed gar
Iwrupa pi
Ġet hanul
ĠSta te
ĠMois es
ĠTs Ã«
Ju ana
Tampu pata
til de
ĠVera cruz
Chacha puyas
cie dad
Kusi tuy
Ġwiks anpi
Ġcont ribu
pol is
Jac ques
ulis iya
ĠAlma gro
Ġqi chuy
Ġmusikuy pa
asya tiku
Ġecon omÃŃa
Ġchuq in
Ġasuy kuspa
ĠPaqta chay
Ġyupan chik
ĠMarcel ino
Pall asqa
vg orod
ĠCami lo
ĠCocha bamba
Ġnec es
Ġnec esi
ingÃ¼ e
ĠKho ta
Ġmak isapa
ĠAme rika
Ġhurqun chik
Fri edrich
tifi cia
usill um
ĠUsiyan yapi
Ġtall ir
Ġgraci asta
SuÃ± aykuna
Hig gins
Ġrespiratori as
guci galpa
Ġchaqnam uy
) ).
1 19
A ga
A wri
B A
B re
D onald
E ry
G il
H as
H Ã©ctor
I mpapura
I hiptu
J ar
J ina
J ud
K y
K aq
K allpa
L uri
L uya
M Ã©
N onato
O klahoma
P ra
P ap
P rin
P aqu
P atri
Q U
Q i
Q uy
Q uru
Q araÃ±awi
R egi
R UNA
S C
S ch
S ina
T urku
T ullu
T unari
W awra
W orld
W apsi
W olf
Y u
Y uq
a f
b eg
c ap
g ana
g ers
h s
h mi
h asqa
k arqan
p p
r qayku
s tan
s car
s yn
t una
u te
v Ã¡n
y wan
z io
z Ã³w
Õ ¡
Ø ´
Ġ zo
ll en
ay o
aq wa
aq taq
Ġk ulli
is ka
ar ra
kuna llan
kuna pura
mi ta
mi um
Ġp uy
Ġll asaq
ku p
Ġh asta
ya ma
Ġn as
ka muy
Ġq uw
Ġka ti
ĠP ho
ĠP ino
us ay
us hi
Ġch hu
Ġch arin
Ġch uriy
Ġma sh
Ġma teri
ĠC lo
ĠC Ã³rdova
ĠS y
ĠS ri
ĠS uc
ap olis
ĠM Ã¼
ĠM eta
ĠM Ã³nica
ur en
Ġm or
Ġm el
nin kunamanta
Ġa gen
Ġri rqanku
Ġruna tam
er qanku
ĠK illka
pas chÃ¡
Ġi mpu
Ġi ruru
ist otel
en tal
ĠH ans
ĠH av
anqa taq
hi rka
hi bo
ĠU p
al apa
Ġkay chis
ĠB io
ĠB aque
ĠR al
ĠR aki
ĠR iyad
kun anqa
qu illa
ĠCh rist
or re
ĠT V
ĠT am
ĠT Ã¡
ĠT ac
ĠT ag
kuy ninmi
li ff
Ġsuti charqa
tin kuna
Ġt ru
Ġman yayuq
ari ya
ari lla
Ġsutiyuq manta
Ch h
Ch al
Ch anin
to man
Ġchay wanpas
Ġqh illi
ĠG rimm
ĠY uguslaw
Ġru siya
ro ma
Ġay parqan
kch us
Ġkaq kunawan
Ġpi l
Ġpi lli
Ġpi sh
19 15
re gi
Ã© ro
ĠE loy
co la
ir aq
ir qay
Ġtu kuq
tan cia
ik tu
ĠF ron
ĠF uente
ara j
da ho
te pe
wi ra
ha lla
Ġmay k
Ġj awa
ran llapa
Ã³n g
Ġmunisipyu qa
Ġima kuna
Ġima kunata
Ġima pis
lu i
ĠMa h
ĠMa gn
tun pi
pan pi
Ġis mu
kin g
ĠMar ÃŃn
Ãĳ AY
Ãĳ uqa
Ġ18 20
Ġ18 33
aynin man
apa chana
Ġhay kuyta
anku paj
ĠO b
Ġkawsay qa
Ġwarmi kunapas
Ġiskay niyoq
Ġpay kunamanta
Ġpay kunataqa
Ġati pan
chan pi
Ġhin araq
Ġhin iral
uru m
niyuq chu
yki chik
aran ki
chka ptinmi
Ġsi glo
Ġpuchuk anqa
Ġmamallaqta kunapi
Ġ6 3
ĠAr ma
ĠAr ro
In ga
Ġaw kikuna
ĠPa ge
ĠÃ±awpaq en
ĠÃ±awpaq taqa
ĠÂ »
Ġf ran
Ġf ue
Ġf lora
10 6
amp o
eg al
Al bert
Al awsi
ĠPar ra
ĠAs uwi
Ġkachkan i
Ġ7 4
Ġ7 8
ern er
ĠIs luwakya
ĠCar pio
15 2
Ġchakra kunata
unu pa
niy kipi
par aw
Ġqull usqa
kunan chik
ĠRuna kunapak
ho ta
ĠHu ara
Ġg lo
Ġo ficial
Ġ14 7
unchay kama
ĠZ udÃ¡Ã±ez
ĠZ aragoza
As way
ĠhuÃ± um
ĠCo unty
Ġ10 2
Ġkamachi kuykuna
Ġkamachiy ninpi
Ġqan kunawan
ĠGu ate
mp uni
Ġrunas man
Ġ: :
Ġkunan mi
aj i
Ġpuchukaynin pi
ĠLe nin
Ġawqaq kunam
Ama ru
Pa dre
Ar thur
ĠX XI
Ġchur asqan
ĠSa man
ĠSa xo
Ġv ari
Mun gul
iru manta
ĠAp urÃŃ
Ġtayta y
Ð¸ Ð¹
kamay a
ĠMana gua
Ġrumi lla
Ġyuyay man
áĥ £
Ġrunasimi llapi
ĠÎ µ
Ã±am u
Ġlluq lla
Ġruwan ayki
Ġpin kuyllu
Ġruray mi
ĠAle j
ĠAle mÃ¡n
ĠQispi chiq
ĠØ ³
chej chu
Ro ck
ĠMad re
Ġwasin manta
ĠAb del
ĠTi an
Ġsuyun kunapi
ĠIwrupa pipas
ĠDyus pi
ĠDyus wan
Ġraki kuna
aspan mi
Ġpurin ku
Ġtak ispa
Ġse Ã±ora
Ðµ ÑĢ
kunqa chu
be tu
Ġpisqu kunap
land s
Ġvi deo
Ġvi uda
Ġkamachiq nin
Kun gu
ikr ana
ĠwaÃ±uy man
War aniyi
May pim
Ġche qan
rim onio
Ġhawan manta
Ġqhe pan
Ġchawpi pi
anam Ã¡
Ġmasi y
Ġmasi cha
anapaq qa
Ġsh umaq
ĠHer mosa
ĠQh elqasqa
Ø§ Ø±
Ġcom p
ykichis pi
Rimay kuna
Ins tituto
Ġtaytakura m
Ġranti q
ĠTru yanu
ĠÃ±isqa tapas
Ġmill ones
ĠRimay kunap
ĠWarmi kuna
kush aqtin
Ġmakin manta
Je ho
Ġkamachina kuy
Ġmunasqan ku
189 4
Ġat isqa
Pro verbios
Ġlloq sispa
ĠiÃ±iq qa
ĠmaÃ± aspa
Mon te
ĠÃ±o qan
ĠÃ±o qaqa
kuni ku
hir ya
Ġcar cel
Sir bya
Ġthu Ã±
Ġpunku ta
tz al
ĠCer rÃ³n
Ġsipas kuna
ĠChayta qa
Ġchh uka
lad ys
Ġllall ipa
ĠCata rina
wam biri
ĠYa gua
Ġllaqtay kuq
Ġchaqrusqa m
cra tes
Ġyanqa lla
ĠBro wn
ĠVall ejo
Wal ter
ĠHus se
ĠwiÃ±a chiy
Waylla pampa
fisya l
peri al
Ãĳa Ã±a
Runasimi pi
Muyu rikuq
Ġniran llapa
anth us
Imayna taq
Tak ana
Ġval e
Georg es
ĠPhi ladelphia
ĠSon ora
ĠChimpu ti
Ġner ay
Dis kukuna
Ġllas aqmi
Johan n
ĠJara mi
imay na
ĠEspiri tuq
IspaÃ±ul kuna
Suwi dsuyu
ĠCli ath
ĠMax imi
ĠPav Ã³n
Ġtel ev
ĠBella vista
Tim uthiyupaq
Ġiwan hilyu
Kam ri
ĠAlar cÃ³n
Ġqhipaqnin taq
Ġpill pintu
Anto ine
ĠOax aca
Ġkawsachi kuy
Ġwayn asipas
ĠKell y
ĠTama rugal
ĠGubir nasyun
Ġejerci cio
ĠQel qan
arami rin
ĠAug usta
Ampa tu
esaloniki yuqkunapaq
pind insya
' .
' t
6 80
? )
? ,
A cha
A tun
B us
B io
C ay
C rist
D em
E qu
F la
G ran
J acha
J ayupaya
K awa
K anka
K uka
K uska
L yco
M ishi
N uestra
P uqu
Q O
Q o
Q iw
S el
S ec
S ullana
S enecio
T I
T eo
T api
T araqu
T awantin
V ol
a o
a tam
c t
c ina
c ons
c ani
c uni
c tus
d wa
d om
e Ã±o
f r
f ri
g le
i qay
i chispa
i tur
j il
n atÃ¡
r aqta
s inchi
s allqa
s son
v ist
y po
y ne
Å ¾
ä »
æ Ŀ
an pas
an kama
an llapa
ta kuna
ll araqmi
ay kun
ay kuspa
in tin
aq llay
Ġk har
as hi
Ġs anta
Ġs api
Ġs oft
wa ll
ti e
Ġll in
ri um
Ġh el
ya chin
ya war
Ã± anpi
lla ku
Ġn yimbo
ka pu
Ġq ul
Ġq incha
tu p
ĠP aqucha
ĠA lla
ĠA risti
Ġch us
Ġch hayna
imi ra
Ġma ru
ĠC E
ĠC y
ĠC le
ĠC apa
ĠC res
ĠS osa
ĠS inigal
Ġwata ta
Ġr isqa
am aq
ĠM aq
ĠM ala
ĠM unici
ur n
ur pi
Ġsimi kunaqa
iq kuna
Ġm er
Ġm uju
uq yachina
Ġsuyu kunawan
er ba
chi ya
chi le
Ġki lta
ĠK uc
ĠK unturiri
ĠK anchayllu
Ġw arak
ĠH oq
ĠH ami
ĠH istoria
ĠH Ã©ctor
ĠL ayu
ĠL ÇĲ
es u
ĠU tusku
ĠQ uru
ĠQ araÃ±awi
ĠQ awana
ĠW ol
ĠR uwa
ĠR Ã³mulo
ĠI mira
kun aykipaq
Ġqa wan
Ġqa pariy
qu ll
ĠCh risti
ĠCh urkampa
Ġ2 20
chu an
ĠT hi
ĠT iya
ĠT umbes
asqa ta
si tan
ĠPi o
ĠPi law
Ġkan ampaq
el ota
Ġman charisqa
ari t
ĠJ us
to m
Ġchay wanpis
ĠD C
ĠD ere
ĠD av
Ġqh uÃ±a
ci tos
ci pul
Ġqillqa m
Ã¡ la
Ġru su
") :
Ġkaws ayninpi
ĠUma wa
Ġu vas
chasqa Ã±a
di ce
Ġkal istu
Ġkaq paq
19 12
19 16
19 24
19 21
19 07
19 04
ray a
ĠN M
im bra
Ã© e
do ya
ĠAn tisuyu
Ġall pam
ĠE spa
ĠE colÃ³gi
co a
tan illa
uch us
ik ll
asi yu
ĠF ara
Ġ3 01
inki paya
hu at
llan ka
Ġj aw
Ġj uj
Ġhina taqmi
has qanta
sa i
sa ka
gu do
Ġallin kaqta
Ġis tu
Ġan kichiy
kuq ta
go t
Ġ18 10
Ġ18 38
Ġ18 32
Ġ18 09
Ġ18 88
Ġc os
aynin kuna
apa k
Ġyachay wan
Ġcha la
acha llina
iti chi
ulla way
ash pa
Ġuy anta
Ġkuti taq
Ġham unku
Ġama w
Pi d
ph on
Ġpar te
ĠLima manta
18 1
Ġtiyan chu
lo w
Ġmamallaqta m
ĠDios niyki
Ġwar ani
Uma wa
ĠAr tes
ĠAr men
Ġkitilli pas
ba ja
uta pas
sh alay
Ġway usa
it or
In uyt
Ġb ir
Ġb eta
Ġkatiguriya m
ja ja
kunapas h
amp ana
ĠwiÃ± ananpaq
ĠAs qupi
Ġ7 3
Ġ7 9
Ġkilla kama
du cciÃ³n
Ġ8 6
Ġ8 8
Kama chiy
12 5
ĠKi la
ĠLlaqta pata
mun do
Ġap ar
Ġqhi panta
par aq
Ġyupay cha
ve ja
Ġo cci
Ġ14 1
Ġpachapi taq
res den
Ġwat uk
ag reb
Qhapaq kunap
Ġkamachi kuynin
Ġkamachiy ninta
Ġqan kunapaq
bi li
har ina
ĠMo vie
ĠSi ra
ĠPay kunan
ĠQucha kuna
Ġtiy aqmi
pus itur
ĠLo a
Ġruru chiy
Ġchask isqan
à¤ ¦
ĠÃĳ oqa
ĠÃĳ uqanchik
ĠBar cel
ĠBr un
Ġes cale
ĠMari ana
Ġtakiq kuna
ĠWan u
La ja
ĠX IX
CH UNKA
fi cado
Ġchur arqa
ĠSa uÃ±
ĠSa kawa
27 1
urku r
Ð¸ Ñģ
ĠÃ ĵ
ĠRansiya pa
Ġrumi pi
Ġmuyu payaq
Ð° Ðº
Ġal ma
Ġal tar
Ã¼ ssel
ĠUni ver
Ġyawar ninta
Ġjina manta
Ġruwan apaq
ĠAle mana
ĠAle ksand
Ġnisqan kamaqa
Ġchanta taq
Î¿ Ïį
jo te
ĠVi da
ĠTe gucigalpa
Ġyuy arina
Ġmar co
anchik pa
Ġphi ru
Ġphi Ã±ari
Ġqo ll
Pacha k
so uri
ĠMor e
Jo aquÃŃn
kunanpaq qa
War al
dal e
Ġaycha ta
ĠNo vgorod
ĠQui jote
Ġtantanakuy pi
ĠHo rizonte
Ïģ Î¿ÏĤ
ĠLla ki
awk ari
ĠRos al
van co
Ġmasi chakuy
Ġ187 8
Ġhuklla chasqa
umb insyun
Yana pa
amar go
Ġimayay kunata
Ġqhawa kun
ĠCrist oqa
ĠQh aw
erra t
ĠGre at
Ġwawan kuna
Con nor
Ġruwasqa s
Ġanchata puni
kap usqa
illan taqmi
Ġco br
Ġno qayku
je vo
ĠGran t
Ġlluqsi muy
Ã¨ ne
ĠSay witu
Ġaj lla
mantan i
Ba Ã±os
Kawsay kuq
189 1
Ale x
Pal ama
Ġawqa kunaqa
ĠEd inburg
Ġlistritu m
ĠBal di
Ġqar anta
Ġsasacha kuykuna
ĠHampi kamayuq
Ġharawi kuna
ĠLu x
Î· Ïĥ
ĠAnd amarca
ĠAnd rade
ĠMag allanes
ĠPan tan
Ġba gri
mantaq mi
Ġlu gar
ĠkaÃ± aspa
Ġsapsi lla
din and
ĠSir bya
Chik layu
Huch usuma
KaÃ± iti
Ġwasichay pi
ĠÄ ī
Ãī xo
ote ca
ĠIcha taq
ĠIsi doro
ĠRob in
Ġqari kuna
Ġnish pa
ayaqa cha
Ġsill wi
meral da
Ġsik llalla
Ġtupu m
Isa ÃŃas
ĠPl urina
ĠWaki chikunankupaq
iph ala
edu caciÃ³n
ĠBri an
ĠEuro pe
ĠAndre w
inkina kusqa
Qaqa tampu
Georg ia
ĠNas yunalista
ĠKusi tuy
ĠÐĲ Ð½
Ġran sis
uang dong
lÃ© tico
ĠQhu lla
ĠTurkiya pa
ĠMam uriy
ĠWhi t
Ġgen eral
Ġkilu gramu
Ġbr asi
Kuta kachi
Mer cedes
Ġwayaqa cha
ĠTuku man
Ġrir pu
Ġhurquy kuspa
Ãļ S
ĠJun ÃŃn
Ġusqhay lla
ĠFra iles
Ami rika
ÃĳuÃ±uq kuna
Mad rid
tist anti
à¯ į
Ġqat ispa
ĠLamb ayeque
ĠGuill Ã©n
ĠAlvar ez
ĠHuÃ±una kuynin
Ġchikichasqan mi
ĠInmacula da
Ġsanamp anqa
Õ¡ Õ
ĠKuc zyn
ĠImira tukuna
shalay im
ĠEdinburg h
% ).
' )
A PA
C ama
F IFA
H ap
H ill
H ech
H udyu
I lu
J er
J ayu
J uel
K ari
K urinthuyuqkunapaq
M eta
P aykuna
Q anqa
Q achu
R ab
R inri
S ic
T rinidad
T akupaya
U llu
b lu
b aya
b ab
b ey
c ali
c ty
d ue
e qa
g r
g ni
g ata
h ttp
l ap
l anta
m ina
n on
n aqucha
p tera
r aria
s te
s hina
t ford
w kan
y ev
y kuwan
{ {
Â ·
Ä Ĺ
Ñ į
× ľ
à ©
á ¿
Ġ ÆŁ
Ġ organi
an cy
ta e
ll arahu
un is
ay pas
Ġk wambiri
is s
is aqa
ma siy
as ca
as pim
ar nia
wa i
wa chu
wa taqa
yu la
Ġp ash
ti ykichis
Ġll ata
Ġll asa
Ġll alli
ri tar
man so
ya l
Ġ( =
cha man
pa qarisqa
lla way
lla wanmi
Ġwa qar
Ġwa chan
ka ka
Ġq um
Ġq ech
Ġka kuq
Ġka usan
ĠP os
ĠP amp
ĠP olylepis
ĠP hirriÃ±aphi
Ġnisqa kunaman
Ġnisqa wanmi
wan si
ĠA var
Ġch ino
Ġch ullu
Ġma p
Ġma w
Ġma killa
ĠC ris
ĠC ac
ĠS U
ĠS uq
ĠS tar
ĠS ystem
Ġr inki
Ġd u
ĠM esa
manta Ã±a
manta raq
iq ira
Ġllaqtapi n
Ġa f
Ġri pus
ĠÃ± uÃ±u
ill ayta
Ġpa ts
ĠK ant
ist ru
ĠL ÃŃ
es tas
hi kuna
Ġ- ),
aw ru
paq ta
ĠQ ur
ĠQ iw
ĠB asti
ĠW isk
ĠI ca
ĠI mp
ĠI shkay
ĠI charati
kun ankuta
Ġqa wari
at mayuq
ĠCh aki
ĠCh hay
ĠCh oc
ĠT upa
ĠT ony
ĠT acu
ĠT ukachi
llapi n
si flora
ĠPi etro
Ġkan ka
Ġkan ankuta
Ġt un
Ġt ha
kama s
ĠJ ak
ĠJ ujuy
ĠJ usticia
Ch ur
Ch anta
Ch umpiwillka
Ch anchamayu
Ġchay hina
ĠD ay
ĠD uminikana
Ġqh ap
Ġqh elqa
uri q
ci lla
ci dad
ĠY apa
ĠY ong
Ġta tas
aqta m
Ġay pana
Ġay sana
ni tiku
di t
di ca
Ġyu masqa
Ġkaq kunam
Ġkaq kunaman
Ġpi li
Ġpi kch
19 11
19 28
19 02
ĠN elson
chis a
kay llu
Ġpacha pis
co ck
Ã±a taj
ca pa
ĠF ons
ĠF ab
chik wan
ara ju
ol qe
te ll
te xt
hu ira
ispa taq
Ġj a
Ġj uÃ±
Ġj anaq
Ġj anaj
pam ba
Ġima kay
Ġur asuyu
Ġur qun
Ġallin kaq
uÃ± iy
ĠWi ti
Ġ18 40
chin aypaq
iy il
Ġc ur
ĠIn c
Ġhay ka
Ġra wra
anku taq
ĠO pen
uni ku
Ġkuti chispa
Ġiskay muyu
Ġyacha kunapaq
Ġkar uncha
lan s
llam pa
Ġati ene
chan chu
chan ankupaq
ĠChi ruki
Ġham ush
Ġham urqanku
ph al
Ġwasi yuq
ptin chik
ĠRo ger
rin illas
qay kichis
18 8
yki q
yki qa
aran da
aran llapa
An ku
lo Ã©
ĠDios wan
ber deen
Ġriku chisqa
Ġmus yan
ĠAr qi
sh uy
Ġmikh usqan
In du
In karrÃŃ
Warmi y
pin g
ĠPa tu
ĠPa qar
ĠPa qarisqa
ĠPa gador
Ġkus kam
era les
hin u
eg ro
ĠwiÃ± anku
ĠQusqu p
Ġkachkan chu
Ġ15 35
Ġ15 72
ĠKa pi
Ġqillqasqa pas
Ġ9 2
ĠCar r
ĠEs qui
Ġ8 3
Ġsay arisqan
12 2
Ġ17 5
17 0
gen io
ĠKi chka
16 8
Ġtari pasqa
14 1
Ġyaku manta
Ġyachaq kunaqa
ĠRuna kunaqa
ho ven
ens o
Ġtik r
vin o
Ġ12 5
unchay ninpi
Ri kuway
ĠZ el
vo ra
Ġmas kha
Ġmas kaspa
As tawan
pun ta
ami wya
Ġkaru chu
asun kichis
Ġli bre
ĠFran Ã§ois
ĠPay pa
Ġtiy asqa
ĠInka llaqta
ĠAri ca
lia da
Ġwawa kunapi
à¤ Ĥ
ĠÃĳ uflo
ĠÐ ¢
Mar uku
Ê¼ u
min ti
min ya
min tu
Ġkash arqa
Ġpaqari chiy
mu wan
ĠSa hara
Ġpisi y
Ġv ir
Ġwaqa chinchik
ĠPedro ta
Ð¸ ÐºÐ¸
ĠSunturnin pi
Ġyuyay cha
Way anay
Ġqatiq nin
Ã±i yuq
ts ka
Ma kin
Ma Ã±aykuna
eni ci
ĠÎ ¦
ĠUni ted
car ra
Ġllaqtan chiq
ĠAle x
llata Ã±a
Ġ27 0
ĠBi yubiyu
Ġqhari qa
Î¿ Î³
ĠIskay nintin
illi chu
ĠQu il
ĠQu esada
ĠVal era
ĠEn rÃŃquez
Ġrurasqan ta
ĠBer gman
Ġpurin apaq
Ã¤ nam
Ġphi chqa
Ġse Ã±al
Ġrimasqa kama
Ð² Ð°
Ġwayra pi
cul es
cul ata
law il
Ġqillqan akuna
May qin
gan ki
ĠChaymanta s
ĠUniversi tario
Ġrikh uriy
ĠLla llawa
ĠJu anqa
Ġllap ta
Ġsonqo wan
Suyu pi
UN CH
ĠHer mann
ces i
ces o
Ġmuru kunata
Ġqay ll
Ph uyu
Musuq llaqta
Ġ186 1
rina da
Ġco le
Ġqelqa pi
uqan chis
Ã³ni co
of agus
Ġkristiyanu kuna
ĠAf rica
ĠÃ±isqa pi
Wanka pampa
ÙĬ ÙĨ
ĠYal ata
ĠAt lÃ¡n
ĠLuk as
ĠispaÃ±ul kunap
Ġmaqana kurqan
Yacha chiq
Ġlistritu pi
Ġchimpa chikuy
ĠhuÃ±unakuy pi
ĠAk llanakuy
Ġna cional
kichik chu
ĠSus ana
Ð´ Ð¸
asaq suyu
Ġhurq uq
Ġhurq unapaq
Am eri
Ġsal v
Ġsal ina
Ġchink ar
Ġchiq ni
ĠTaki chaq
Ġkaqtin pas
Ġhaw aykaws
gs berg
Ġura pi
Ġphaw ayta
ĠaÃ±aki kunapas
Wikipidiya qa
ĠÃĳaw i
ĠCha co
Ġmunani chu
Yura kuna
pos iti
lad imir
Ġllall ip
ĠCons ejo
So uth
Ġfacultad kuna
ĠPu hili
sta te
iqtay niy
ĠSir ya
Ġcre en
IC EF
Sar ayaku
Ġkawallu pi
ĠOc ta
ĠPala cio
ĠPil ar
Ġayqi rqan
Che mill
Be arn
Val encia
ĠQall ariy
ĠwiÃ±a kusqaÃ±a
ĠMois Ã©s
resi Ã³n
Ag us
Ġchill kin
Kap chiq
Ġsec und
Ġapulli kuna
Ġkasara kusqa
ĠQul umi
Kusi kuy
Ġej ecuti
ĠBay ern
ĠNin tendo
ĠParti do
ĠWayta pallana
Saw aya
ix in
ĠDan suyu
Ġpir wa
____ ____
ĠCho que
Ġayq ispa
rar una
ĠJesucristo pi
Jac k
ĠEugen ia
Ġyam kiy
sal tu
Chan kay
ĠNico las
Uch pa
rak Ã³w
Ah med
ĠSec ure
ĠTak ana
Kamachi chisqa
Ġtusuq mi
Johan nes
ĠYachachiq kunaq
Bil hika
Ġqallarisqan pi
Ġreligi on
ĠNiqir ya
ĠAch kha
Ġsaywan pi
ĠTen erife
ĠWitn ampi
ĠDur Ã¡n
ĠKÃ¶ ln
cc les
ĠBetan zos
ĠBag dad
Putu mayu
uliwi yapi
Ġdia gnos
Liw ru
ĠCoo peraciÃ³n
Alexand er
ĠTakiy kuna
Gab riel
ĠCalla o
Ġmiem bros
Ġsinti mitru
Kristu p
ĠGue vara
ĠArchi dona
cab ana
deau x
Ġprima ria
Ġproyec to
SV G
usl ulu
Ġtes tig
ĠDil hi
ĠSilves tre
Ġtiliwis yun
dle ja
kutin apaq
ĠMangl ares
ĠBever ly
ĠBaque rizo
tepe que
ĠApurÃŃ mac
chile mu
Ã¼ssel dorf
ĠKuczyn ski
Juel uo
ĠAvar oa
Chemill Ã©n
" -
; &
A lan
A ph
A eropuerto
B ir
B ulibiya
B ulgarya
C ap
E li
F al
H uÃ±u
I l
J P
K ayta
K hiniya
K unturiri
L is
M ara
O x
P ayta
P ut
P unta
P ER
P oly
Q upa
Q he
R aya
S R
S ac
T V
T aq
T el
U ya
V a
W C
W asa
Y atana
a mana
a kunapaq
a kunapas
b os
b ik
b ria
b les
b anu
c lassis
d ing
d ena
f on
f ast
f ace
g ru
h ra
i chisqa
i Ã¡s
i dae
j ubl
k et
l ur
m una
n mi
n os
p el
p Ã¡n
q hu
t tin
t Ã³n
u kunata
u gu
u ph
v alle
w ill
w ik
x ar
y kun
y ayuqmi
Å ĭ
Í ĺ
æ ľ
qa lla
ch ol
ll unku
ll aqucha
ay lla
in wan
in kin
Ġk utu
Ġk ultura
Ġk lasiku
is eo
ma ter
as am
as uy
as manta
ar on
ar ÃŃ
ar tam
ar witu
Ġs oqta
wa wa
yu raq
Ġp uli
ti ru
man d
man manta
pa ja
Ġllaqta kunapaq
ru yuq
tu gu
ĠP uj
Ġnisqa manmi
us se
ki pa
ĠA Ã±
ĠA pun
ĠA gua
Ġma cro
ĠC un
ĠS pa
ĠS chu
ĠS hun
am un
ĠM ik
ĠM et
ĠM ei
Ġm ucha
ul t
ul gen
on tes
Ġa ta
Ġa lt
Ġa th
Ġruna chu
ĠÃ± eqe
ill ar
ill qan
Ġsuyu yuq
chi kuna
chi kurqa
ĠK ip
ĠK ampi
ĠK lisa
Ġi pistula
ĠH ata
ina kuna
ĠL em
ĠL ong
es k
es sa
ins tein
hi y
ĠU j
ĠU kh
ĠQ uy
Ġkay ni
Ġkay rayku
ĠB lu
ĠB ak
ĠB lo
ĠW u
ĠR awra
ĠI lu
ĠI mas
kun ay
Ġqa tan
qu in
ĠCh iq
ĠT ec
ĠT eno
li ya
Ġsuti ta
Ġsuti iyuq
ĠPi edra
yan i
Ġt hun
Ġsutiyuq ta
ĠJ ung
Ch ac
to k
Ġchay arqa
Ġchay raykun
Ġqh atun
Ġqh ati
ĠG rigu
ĠG rupo
Ġqillqa muy
Ã¡ c
Ġta ram
om ina
Ġkaws akun
Ġu mu
ach e
anta wan
anta llawanchu
Ġay lluy
di z
di to
ĠwaÃ± unan
kunapi chus
19 23
all as
ĠN Ãº
tam ina
im us
do ma
ĠAn te
ĠAn cash
Ġall im
ĠE mp
ĠE manuel
uch an
ĠF is
um Ã¡n
da de
Ġ3 40
Ġ3 47
wi cz
Ġwi ray
pay qa
Ġj in
Ġj el
unchaw niyku
ĠSan t
ĠV Ã¡zquez
Ġima ge
Ġima sta
ull ay
lu wa
Ġis ka
ĠMar tÃŃ
ĠMar seille
kuq pa
kuq kunaqa
Ġ18 50
Ġ18 35
chin chu
ĠIn geni
apa chiqa
ak cha
Ġhay Ã±
Ġyachay wanmi
Ġyachay ninkuta
Ġcha qay
Ġriman ankupaq
iti kunapiqa
ĠO co
ĠO dis
ĠO choa
ĠO bispo
Ġpuq una
achay uq
Ġkawsay kunata
ash aqta
Ġmayu qa
Ġkuti lla
ter s
ĠDi ana
iw uti
Ġyacha tsik
ue gos
Ġati ptin
ĠChi ra
ĠChi la
ĠLl amp
iya qa
ĠRo man
Ġtukuy nin
uru manta
ec t
ura kuna
San ti
18 80
18 70
18 35
18 86
et ra
An tanka
ez ia
Ġtaki rqan
Ġmamallaqta yuq
ba gu
Ġwatakama pim
ĠKay apas
Ġimay aykuna
Ġkatiguriya kuna
ĠAs cen
ĠAs arsuyu
Ġ15 1
Ġ15 00
Ġ15 48
ĠMan araqmi
Ġqillqasqa kuna
Ġ9 4
Ġ9 5
ĠIs piri
ĠCar ter
12 6
Ġ17 1
uma m
Ġpuri china
16 3
16 6
ink asqa
Ġtari pana
ob amba
par iq
ĠUmalliq ninmi
ic os
uc ur
ĠHu gh
Ġanta kuru
Ġ12 9
Ġmas kaq
llay kuna
As naq
anchay niyku
ĠAy cha
ĠAy ha
dia Wiki
Ġkamachi ptin
Ġph ani
ĠGu il
Ġtuku pun
mo ur
Distritu pi
kuynin wan
ĠSi chura
Ġ13 1
Ġ13 5
ĠInka wasi
Ġwawa kunamanta
ĠLe ipzig
à¤ ķ
Pa qar
zo la
Ar qi
Ġchur anapaq
Ġpaqari rqaku
Ġkaynin qa
kusqan man
uj Ã¡n
28 0
28 8
27 4
âĢİ )
26 0
Mayu pura
ĠÃ ĸ
ĠQillqa kamayuq
ĠRansiya p
Ġrumi kunata
Ġmuyu y
Ma dagaskar
ĠPacha kutinapaq
ĠÎ ±
ĠÎ ĺ
amb io
Ġe di
tr ong
Si ku
Si wi
Ġruwan kichis
Ġllaqtan cheq
Ġruray kunku
Ġsan sa
chinapaq pas
Ġcon tin
Ali anza
Ġkusi ri
Ġchanta pas
ĠBe ach
ĠMad rigal
ĠiÃ±iy ta
Ġtiya kuq
chas apa
Ġhuch uy
ĠEn c
Ġpurin mi
Ġalli chanapaq
Ġpur isqan
Pacha kuti
Ġrimasqa pas
Un yun
Ġvi rales
Ġqanchis nintin
Ġkh ish
LL U
Ġchallwa kuna
lam en
lam pu
ÑĢ Ð°
tre al
ff rey
Ġsimin manta
ĠHo llywood
Ġkanki chik
hua ja
Ġkachun chu
Ġyay kuyta
ÙĦ Ùĩ
ĠRos ales
ĠCamp ania
ĠKar chi
Ġca b
Ġuq i
Ġuq sitan
Ġllap tapi
Ġimayay manta
Ġrikun i
ĠCrist oq
Mo cha
Wan kayu
Con cepciÃ³n
Ġup yaspa
ima tataq
Ġpunchaw mi
chayuq mi
ĠPampa marka
ĠApu lli
Ġchurin mi
Ġkamachikuy kunata
ĠLL ANK
ĠÃ±awi riyta
ĠMel bourne
ĠCom pos
ĠGonzÃ¡ les
Ġqarq uspa
ĠSara h
ĠWarmi y
ĠAll wiya
ron ingen
Lo ja
Qar anqa
Ġchayrayku taq
189 8
ĠJac ques
ĠJehov ap
Ġth anta
All qa
ĠSI L
Ġwaqlli ynin
ĠMus ic
ueb la
Ġper son
ĠCl ark
ĠPara qas
ĠÃ±oqa manta
Ġhurq unku
Ġkutim urqan
Churi ËĲ
ech tens
jas ja
kuma ri
ĠRegi on
Ġmir ana
ĠSol ano
ĠWawa kunapa
Ġkuyuy mi
Ġlu wichu
ĠSer rano
ĠSach as
ÙĪ Ø±
ĠCH F
Mal ta
ĠpaÃ±a man
ĠAgu as
ĠHuay lla
Ġme tal
Ġme dia
ĠLaguna s
Tuk tu
Tur kiya
ĠMir Ã³
ĠPeter burg
ĠAta kama
Ġwatu ri
Ġwari kancha
Ġtarin chik
Ġchiki chasqa
ĠOc ampo
Ġwakichina qa
Ġanqa sh
ĠKura kan
ĠPall anqa
ĠKam ri
Ġqaran pi
ĠAmeri can
Ġsill p
ĠCam eron
ĠNeg ra
ĠAc cra
ĠIspaÃ±ul kuna
ĠIns titu
Puri q
Ci udad
Ut kupampa
alaq utu
ĠWaw qe
indo ws
ĠVenez uela
Phili pina
Ġyarqa sqa
Ġju chayuq
Bel Ã©n
ĠSanti este
Î¹Îº Î®
Ġner qanku
ĠBernard ino
áĥĲáĥ ł
Ġbr on
Ġrant ina
Ser gio
Pl anta
ĠQiru pallqa
Kaws aynin
ĠSilanda pi
ĠReg ina
Af gan
ĠHum berto
ĠClau dia
ĠSco tt
ĠChupa ka
ĠYam inawa
olÃ³gi ca
Ġqatiy ka
orri llos
æĺ İ
Apulu pampa
ĠIchi lu
ĠNisqa wan
Ġescri to
qaqta punin
ordina dora
NO WC
ĠAP RA
Ġchakata sqa
chwas imipi
Ġirra minta
Lari qaqa
Ġsank hu
Ġullun ta
Gonz alo
ĠAlemani ap
runi kamanta
ĠCaÃ± ete
ĠParl aykuna
áĥ£ áĥ
ĠCres po
ĠPilaw it
ĠEcolÃ³gi ca
Pid rup
ĠBaldi vieso
ĠFons eca
jubl jana
artam intu
ulgen cio
echtens tein
ĠSantieste van
- ).
2 15
2 11
2 30
3 60
A v
B as
C utervo
D una
D om
E se
E ugen
G y
G eo
G rupo
G EL
H U
H on
H ama
H ern
I si
I KU
J isk
K una
K uy
K uri
K hun
K umunista
L es
L atakunka
P uyu
P aqucha
P anti
P ariwanaqucha
Q awana
R aki
S t
S ha
S up
T P
T antasqa
T umipampa
U lla
W iya
X X
Y ar
b ran
c l
c les
d ato
d ipo
e as
e vich
f us
g om
i pistula
j or
j chu
j uno
m unqa
m isk
n ip
o di
p unqa
r n
r yu
t sqa
u pampa
v olu
w illay
w aqucha
y os
z or
z za
µ ·
Â ¹
Æ °
Æ ı
Î ¶
Ð ¶
Ø µ
Ù ī
á Ĳ
å ®
æ ²
ç Ķ
Ġ à°
Ġ Æı
an anta
an kichis
an ea
ta mi
ta ria
un yapi
ay m
ay wiki
in manta
una wi
is lao
ma mpi
ar l
ar emb
mi d
wa la
Ġp ero
Ġp ens
ti llan
Ġll aqa
ri x
ri ba
Ġh ipa
cha eris
pa z
pa kun
Ã± un
ru ro
Ġn aw
Ġn dipo
ka tu
Ġsu wan
qan i
tu ck
tu ras
ĠP olo
ĠP uqu
us tu
ki ll
ĠA way
ĠA utÃ³noma
Ġch uqan
Ġma chasqa
Ġma chin
ĠC ip
ĠS aqra
ĠS uper
ĠS tone
Ġr ino
am uy
am ente
ap aska
ĠM ull
ĠM IM
ĠM iyil
Ġsimi y
Ġsimi lla
Ġsimi kunapi
Ġm aqta
Ġm ura
ul us
Ġllaqtapi taq
uq ullu
on to
nin kunapi
nin rayku
nin kunaman
Ġri ka
Ġruna spa
ĠÃ± uka
ill ip
er gias
chi ptin
Ġpa ciencia
Ġw o
Ġi b
ĠH ach
ĠH allka
ĠH INA
es es
hi ras
os lav
ĠU chu
ĠU GEL
al ata
al cÃ¡zar
ĠQ ha
ĠQ espi
ĠQ uchas
Ġkay pas
Ġkay piqa
ĠB ala
ĠB ia
ĠB aba
ĠB undesland
ĠW ana
ĠW ales
ĠR ap
ĠR aw
ĠR wanda
ĠI van
ĠI glesi
qu er
qu era
qu llqa
ĠCh as
ĠCh ull
ĠCh ung
ĠCh Å«
ĠCh Ã¢
or te
ĠT urku
ĠT Åį
ĠT araqu
ĠT awantin
ĠT Ã©rmino
Ġya llin
chay ri
li g
Ġsuti yup
tin e
si e
ĠPi killaqta
ĠPi xar
Ġkan anchispaq
Ġt r
ari chi
ari ypi
ĠJ ag
Ch upa
Ġchay arqan
Ġchay kunamanta
ĠD resden
ci ta
ĠG is
ĠG ram
ĠY ang
Ġta ka
Ġta risqan
ÃŃ tulo
om bo
la ci
Ġkaws asqanmanta
Ġay pasqa
Ġay qe
ni k
Ġyu risqa
Ġpi chana
Ġpi manpas
19 08
Ġllamk ana
ĠN y
chis un
im ina
im ba
re Ã±o
kay an
Ã© k
Ã© m
Ã© ry
ĠE ric
llu ta
ca ela
Ġtu kuna
uch ukay
Ġqallar inku
ĠF le
ĠF lo
da pi
Ġ3 20
Ġ3 39
inki chis
wi kuna
Ġrikch aq
Ġwi rata
Ġwi jch
Ġmay a
Ġmay chus
ĠV asco
Ġima pi
Ġima wan
Ġima pipas
Ġima mantapas
br aska
ĠLi tt
ĠMa de
ĠMa tilde
aspa ta
chaq kuna
way chis
pan ay
gu era
gu age
Ġrimay ninta
Ġrimay ninqa
Ġan kash
ĠChay awita
Ãĳ it
vi embre
Ġy un
Ġ18 1
Ġ18 00
Ġ18 85
Ġ18 59
Ġ18 42
iy kuna
Ġc e
Ġc ara
Ġc ose
asqan mi
Ġhay wa
Ka mana
de mo
de ric
acha kuna
ĠO ne
Ġkach ariy
Ġqhichwa ta
kus luwakya
llam ontes
Ġati pasqan
Ġ4 50
Ġama ru
Pi ki
ant za
ant sik
Ġpar lam
Ġpar lay
ga z
ura pa
18 89
Ġchunka manta
Ġmamallaqta kunap
ĠDios nin
Ġriku chispa
Ġinti chaw
sh all
Ġmikh unanpaq
yta pas
Ġla don
Ġkawsaq kunata
Chay si
it s
ĠWa Ã±
Ġb o
Ġb ay
Ġlliw ta
pin ta
Ġkus is
Ġkus hka
hin iti
Ġnin ri
qaq uyllur
Ġf e
eg ory
Al onso
ey ra
kunaman tan
Ġ15 3
ĠMan cha
Ġkilla manta
ĠIs muruku
ĠIs luwinya
16 4
ob ol
ali dad
14 9
13 7
Ġyachaq kunap
uyllur kuna
kunan chispaq
raq ue
ens k
ika kuna
Ġtik ran
tt gart
Ġ12 1
Ġ14 6
ĠZ Ã¡
Wa Ã±
anchay ninku
ing s
Ġ16 00
ĠCo ca
Ġsaq manakuyuq
Ġwall qa
Ġ10 4
ĠAy muray
Ġkamachi kunata
Ġph alaq
Ġqan kunata
kichis ta
ĠPer eira
Ġkarqa chu
Ġ20 5
Ġli bru
Ã©s tor
Ġallpa kuna
ĠMishiku pa
ne a
Ġchani yoq
Ġlaya kuna
Ġunquy ninmi
Ġunquy niyuq
ĠLe i
uen o
ĠNa tural
à¤ ¤
Ama ran
Ãĳawpaq ta
ĠÃĳ iqin
aqu il
ĠMari due
Ġchun kana
Ġkas pam
Ġchur arqanku
25 9
Ġkaynin pi
Ġkun kay
27 0
kusqa ku
Ġchin kachi
ĠMana wa
29 0
Ġrumi manta
risti Ã¤
ĠUn ay
Ma didi
AY NA
ĠPacha kutiy
Ġrunasimi man
ĠWar szawa
ĠSo uza
Ġjina taq
Ġchanin niyuq
Si pi
tis ana
Ro dolfo
ĠmaÃ±a kuspa
ĠSh ukllachishka
jo y
aspi wan
tad t
ĠVi vanco
no w
was ku
ard inal
ĠBa ja
anti ka
ĠCa Ã±a
ĠCa esar
Ġpachan tinpi
ĠAra gun
be lla
Ġpro grama
Co ta
Kaw sa
Sal via
ĠÃĳawpaq ta
Ġllika p
Î½ ÏĦ
Ġkawsaynin kuta
Ġyachan ki
Ġyachan ankupaq
ĠÃģ tha
May qen
Qull asuyu
kas ha
Ġwillakuy qa
ĠYana pa
Ġkaqta pas
allampa p
allampa kuna
Ġqhe chwa
ĠRos as
run us
tsi y
Ġ187 3
Ġunan chasqa
Ġuq har
Ti wanaku
Ġrap rayuq
Ġtin kuna
Ġtin kuq
Dios mi
ĠIsa i
Ġkunka kunap
Ġus qhayta
Lla llawa
Ġ' '
Ġkuska lla
Ġ186 9
AR A
aytu ta
ĠKh illay
Ġno qaqa
Chawpi pacha
Ġhata riy
Ġkura k
ĠMun do
ĠCab ral
ĠKilla qa
Ġpaqta y
aypi k
Ġqhawan ankupaq
ĠPikchu pi
Kar tul
Ġci elota
ĠSara jevo
Ġjuch as
ĠChak ana
ĠBra ga
Ġwatan kumanta
Ġuyari chun
Ġmakin wan
Ġrik Ã¤
Je rusal
Ale mania
Uy uni
IspaÃ±a manta
ĠBus na
Pro ven
Ġchimpa chikuq
Ġchinka chisqa
wis pu
ĠPata s
ĠMus ambik
ĠAnd res
ĠYay an
ĠBen jamin
Char lotte
Sir k
Ġsuy untu
uska di
Ġhurq uspa
Ġkutim uspa
Ġqon qo
ĠFeli ciano
ĠBan co
ĠTaki q
Ġpru tistanti
ĠLan deo
Ġlu z
Paw lu
Rumi yasqa
Ġsanan chan
ĠKal indaryu
ĠFo is
Ġprof es
Ġnanay wan
ĠAli ce
Th eo
Th esalonikiyuqkunapaq
Ã³s tol
ĠAfrika pipas
gro Ã±o
Hin aqtinmi
Hin aptinmi
ĠSala manca
ĠaÃ±aki kunap
ĠHis uw
Ġmikhuy ta
Ġderech os
ĠOli vos
dan ya
ĠKur unku
urwi g
Ġmusph arqanku
Ġwiraqucha kuna
ĠIr ene
away las
Ġfi esta
Luk aspa
Kis war
Ġle ey
Kur yu
ĠSusya lismuman
Ð³ Ð¾ÑĢ
ĠVall egrande
Ed ward
Ġniw aq
ĠEste ban
ipay anchik
ĠRimanakuy pa
apar awa
Kulumbya pi
els ea
Ġqullqa kuna
ĠGas ton
ĠAndre a
Ġhaywar in
nisqa qa
Ġwiks ayuq
oshi ma
Pawqar tampu
Ġyuq una
Ġurmay kuq
ĠSECO p
ili laya
ĠEm ma
Icha taq
ĠGall egos
Vir gen
ĠLim Ã³n
ĠJord an
Ġsimana pi
ĠJoan ne
Ġjark Ê¼
ĠMarcel o
taqu io
Ġtutay aq
Hur watsuyu
olk lor
SE P
Chiki chasqa
Qill qana
tiri yapi
zÃ¡ bal
Ġko manso
ĠHinas pas
ĠKatal unya
ĠSup re
agas aki
ĠQH APAQ
ĠDÃ¡ vila
Ġcui da
ĠBarri os
Ġpruphis yunmi
ming ham
ĠCav ero
Ġkampiuna tukuna
Ġsina goga
Ġchup ayuq
ĠYaru willka
ĠCien cias
Ġ(~ )
ĠCasta Ã±
ĠArgen tina
ĠBILING Ãľ
ĠLeoni das
fesi os
ĠALL IN
ĠKenn edy
ĠGris yapi
Ġchacha kuma
Grego rio
onstantin os
Ġwap sim
Ery th
Ġhel hasqa
ĠBarcel on
ĠSauÃ± e
wkan iya
JP G
Ġjel jasja
Wiya cha
unawi rus
aremb Ã³
ĠMIM E
ĠPixar wan
antza za
ĠMaridue Ã±a
ĠBILINGÃľ E
' ;
- %-
. ]
2 10
2 20
2 24
3 70
7 80
; "
A chik
A th
A LL
A chuqalla
C R
F a
F o
F ray
F Ã©lix
F ederaciÃ³n
H oq
H ernando
I lla
I ran
I TA
I wriyu
I xiamas
J as
J iang
K illaqullu
L am
L it
L awriqucha
M anta
M aqa
M amay
O restias
P ulunya
P layStation
Q um
Q ulla
Q ura
R ay
R onald
S ama
S ud
S uper
T hay
T apaqari
U E
U l
U ku
U pa
U TC
V el
V il
a kay
a gua
b ec
b lo
b it
b inas
c uro
d br
e os
f un
f ar
g ÃŃa
g rÃ¡
g kat
h l
h amp
i e
i pas
i chay
k ja
m eg
o quia
p ya
p pe
p ero
p lay
s paq
v us
v um
z cz
É Ľ
Ð ľ
× ª
à «
à º
å °
Ġ ~
Ġ ê
Ġ yanu
Ġ inki
Ġ ÙĨ
Ġ à®
Ģ ì
an kunatam
an zas
ta dor
qa paka
ll es
un Ã¡
un ista
pi luta
pi rqa
in on
in kunata
in anpaq
aq kunatam
Ġk asti
Ġk uyay
Ġk raj
is in
is en
is han
ma in
ma pudungun
as kar
as kasqa
ar una
ar qayku
mi la
mi ran
Ġs ip
wa tapi
yu sqa
Ġp aya
Ġp aqtan
Ġp ulisiya
ti manta
ti yuq
ti um
Ġll uta
man da
Ġh aq
Ġ( %)
pa chaq
pa chas
uk unanpaq
ka l
ka la
ĠP asa
ĠP ER
ĠP lat
ĠA da
ĠA lo
ĠA vel
Ġma manta
Ġma maqucha
ĠC D
ĠC uer
ĠS en
ĠS ull
ĠS alle
ĠS arumilla
Ġr en
Ġhuk kunatapas
uy kuna
uy ka
uy chis
ĠM asi
ĠM ulli
ĠM iller
ĠM etropoli
ur des
Ġ1 200
nin taq
Ġa Ã±
Ġruna pi
ĠÃ± am
ĠÃ± at
Ġsuyu pas
Ġsuyu paq
Ġpa llaq
ĠK uska
ĠK aytaqa
Ġw isa
ist Ã³
en ci
ĠH os
ĠH usi
anqa ru
ĠL ind
ĠL eg
ĠL atakunka
ĠU pa
al d
al ca
ĠQ aw
ĠQ iris
ĠB ac
ĠB oni
ĠB omb
ĠW anku
ĠR yan
ĠR ud
ĠR IM
ĠR UR
ĠI M
ĠI N
ĠI qu
at ha
at tle
ĠCh h
ĠCh ris
ĠCh anin
ĠCh hayna
ĠCh ristopher
Ġ2 25
ĠÃ±iq uin
ana ka
ĠT say
ĠT ansan
kuy an
kuy kunata
Ġya pan
chay ki
li za
si ri
ĠPi edras
Ġt ri
Ġt rata
chaw ay
Ġman apuni
Ch aski
ĠD un
ĠD onald
uri ta
usqa ku
ĠG ari
ĠY uru
ĠY uma
Ġqillqa p
Ġta tan
Ġta pur
Ġta puk
om etro
ĠPiruw paq
ach ka
anta ykuta
di ja
ĠwaÃ± unqa
ĠwaÃ± unmi
ĠwaÃ± ukap
Ġyu rin
Ġkaq pa
Ġpi ch
19 00
ĠN urwig
im yen
kay wan
kay manta
pu kuna
do carpus
ĠE ver
co ya
co pe
Ġti ranu
Ġtu m
Ġtu ma
Ġtu tura
tan u
tan pu
ĠF la
ĠF inan
ara kuna
Ġ3 14
Ġ3 22
Ġ3 37
Ġ3 51
wi Ã±a
hu ad
Ġwan tuq
Ġj ura
Ġj usk
Ġkama chis
ĠV ern
ĠV acas
spa qa
chiy nin
ĠLi z
ĠLi tunya
ĠLi verpool
ĠMa i
ĠMa inz
ĠMa huad
sa ta
na ciÃ³n
gu er
Ġallin tan
ĠMar yana
Ãĳ uk
Ãĳ ut
Ãĳ oqa
vi t
Ġ18 19
Ġ18 15
Ġ18 60
Ġ18 70
Ġ18 37
le ans
iy ara
Ġc rec
apa cha
Ll aw
Ġyachay suntur
Ġ5 000
Ġ5 80
Ġcha lapi
Ġyura manta
acha kunata
anku manta
Ġrur aqmi
Ġrur anakuna
ĠO llantay
ut ri
Ġkawsay pa
Ġraymi ta
lan o
Ġqhichwa m
kus pas
pis h
pis qan
Ġati panakuy
ĠChi ar
ĠChi qan
ph aqsi
ptin chus
Ãº m
rin man
rin os
ab aque
18 7
18 90
18 48
18 76
18 84
18 67
Ġayllu kunapi
et es
aran ÃŃ
An ka
Ãĳaw in
Ġtaki yta
Ġwar kh
Ġwar aqu
Ġmus y
ĠAl may
Ġqhaw asqan
Ġinti llama
anan paj
ba den
uku chi
uku resti
aqa cha
it torio
Ġrima kunata
Ġrima kunam
In c
ĠWa orani
ĠPa ca
ayki chikpaq
th era
ĠwiÃ± asqa
Ġtar punku
Ġuk y
ĠKa tuliku
ĠHatun qulla
Ġmuna kuq
ĠiÃ± ini
ĠiÃ± ukun
ĠIs las
du a
ĠEs ther
15 5
Ġ8 7
yay ku
ÃŃn g
ÃŃn sula
ĠMi d
ĠMi hiku
16 2
16 9
Ġtari paq
ano v
par o
14 6
ĠAma lia
ĠAma wta
Is ku
Is landya
13 3
Ġyupay chanku
20 3
Ġyachaq kunam
ĠRuna kapaq
uc ay
ho yo
ista s
ve lica
Ġo p
Ġo veja
Ġ12 7
ĠUru pisa
ĠZ a
ĠZ av
ĠZ agreb
ĠSuntur pa
Ġsaq ir
Piruw piqa
Ġruraq kunata
pacha k
Ġph ist
Ġkamachiy pa
Ġkamachiy ninpa
ĠGu anajuato
ĠGu aviare
har qa
Ġkaru pi
llo a
ĠPer Ã³n
uspa qa
ĠSi mana
ĠSi erra
Ġwaq an
Ġwas k
Ġwas ha
Ġwas anpi
ne e
ne ll
Ġwawa kunapas
antin pi
taj rÃŃ
ĠEl vira
à¤ ¯
Pa u
Pa ka
ĠBar ry
ĠBr uns
ĠÐ Ľ
Ar ma
Ar hintin
ĠX iao
llun k
Li u
ĠSal it
Ġkash aq
Ġchur anqa
Ġchur ayta
Ġchur anku
Ġkun kan
ĠAya wiri
Mun ay
ĠMon ta
27 5
Ġwaqa chisqa
up ana
24 0
ĠKrus pi
26 4
den ce
ĠDe an
Ġtuk apu
ĠTayta yku
Ġrumi yasqa
Ġmuyu pay
Ð° Ð²
Ġal qo
Ġind ÃŃgen
ĠUn ancha
ĠWar anta
ĠÎ ĵ
Ġar aran
ĠAm Ã©
aqtin ku
Ġruwa kunan
Ġwaqay chanam
eb ra
Ġruray kuna
Ġruray kunata
Ġnina kurqanku
lor o
Î± Ïģ
Mi tu
Ġriqsi chin
ĠPh illip
Ġqhari ta
Ġsin tapi
Ġsap ara
Ġtakichaq pas
Ima raykutaq
ĠiÃ±iy kama
ĠSh amayka
nes ota
anchis ta
ĠPal istina
ĠChinchay suyu
ĠEn gel
ĠWasi chay
ĠCon necticut
Ġyuy asqa
ĠJesus wan
ĠCas t
Ġrurasqan pa
ene to
Un un
Fran ces
llapa qa
ep or
ipa china
Jo Ã£o
ĠPor venir
eno podium
Ġkaus ayninta
Î½ Î¿ÏĤ
Ġpuriq kuna
Ġpuriq llam
Ġyachan chu
Ġqillqan mi
ĠÃģ vila
ĠÃ±an kunapi
ĠOr beg
ĠOr leans
Ġsimin pi
ipi na
ush qa
ĠGarc ÃŃ
Ðº ÐµÑĩÑĥÐ°
IS Q
ninku manta
llana kuspa
Ġwalla p
umb us
ĠBibli ata
Ġimayay kunap
Dios manta
Ġyanapa wan
Ø§ Ø¯
Ġus u
Ġcom pu
Lla ki
Ph insuyu
Ġwawan pa
Ġ189 3
ĠHar vard
ren abaque
illan chu
Ġno v
ĠBolÃŃvar mantam
Ġkur reg
ecta sqa
au to
Ġash tawan
ĠNihun pa
Ġkristiyanu kunapaq
ĠhuÃ±u kunapaq
umun ismu
Se villa
Ġmachu kuna
Ġci elo
Ġtay tanta
Ġapayka chanam
Ġmu ja
Ġrurana kun
Ġuyari kun
Ġuyari rqan
Ba gua
ĠCama ra
Ġmunasqan ta
189 7
ĠiÃ±u pura
Ġth ani
ner os
bu co
Ġrantin pi
Ġrantin kan
alifor ni
ĠLu cio
Ġwaqlli chiq
ĠAk hili
ĠCl yde
Ġshimi pi
ĠÃ±oqa wan
Ġpunku pi
ĠHinallataq si
ĠCer cado
ĠLeon ard
Ġrikhuri q
ĠØ§ÙĦ Ø
ĠØ§ÙĦ ÙĦÙĩ
ĠLouis e
ĠEli as
Ġura man
ĠKamachiy kuna
Hin aspan
Ġkawsari m
Ġruwaynin kuta
Was kh
ĠMis ti
Ġgra du
Ru manya
Alf onso
umin gu
Ġpilikula pi
Ġyachar qa
Ġkinray ninmi
ĠantaÃ±iqiq pi
tter dam
Ġmusph achin
Ġgu erra
Ġsuma jta
KaÃ± aris
Re al
Ġkuch una
ĠChe qaqtan
lvar o
ĠÃ±uk anchik
ĠHern Ã¡n
Ġkachkaq raq
Ġpl anita
ĠSiw inaqucha
ye vich
ĠÅ ļ
Ġyachachisqa s
Ġniw trun
Ġphaqcha kuna
alis co
puri q
Com unidad
apar niyuq
Ġmuyun timpi
Ãģ n
Ġacha chillanmi
ĠVera paz
Chacha kumani
Challwa kuna
ĠTes al
Ġyawrin kuna
Kin ray
Ð¸Ñ Ľ
ĠCap erna
ĠAbra hampa
ĠChim bo
Ġnip tin
Ya gua
pol do
ĠChuk iyapu
ĠRub Ã©n
maya gua
ĠFlor encia
Ġfauna pas
Ġcasos pi
ĠJohan nes
ĠLuz uria
Puq una
ĠWam ink
Phu kuna
bil isi
Ġinlis yapi
Ġvo cales
Ġsamari kuy
ĠHil de
ĠTol uca
ĠMaki dunya
ĠBran co
Ð¿ ÐµÐ´
wakin llapi
tho do
Romanu kunapaq
ĠApuy aya
Bor is
Ġkansillir ninmi
Rub Ã©n
Ġchullpa kuna
Ġsarun chasqa
ĠUrib e
ĠUrib uru
dou ard
Ġachik samay
ĠShipi bo
Ġchil inu
Guad alupe
illims ayaku
ĠWI ÃĳAY
ĠDeuts che
ĠsÃŃn tomas
ĠCis neros
ĠSÃ¡ enz
ĠIwan hilista
ĠTsa chila
ĠMaran kani
GÃ©n esis
ĠGeno va
Ã³lo go
Apustul kunap
ĠyaÄī ha
ĠGon Ã§
Tren tino
ĠTiksimuyuntin pim
ĠAdam s
ĠChus chi
Direc ciÃ³n
ĠKAM ACH
toman ki
ĠGuate mala
Ġsoft ware
ĠDav is
cali entes
Ġpikch un
Hern Ã¡n
tuck y
ĠIglesi as
ĠCastaÃ± eda
Ġinki ll
imyen tukuna
ĠBruns wick
ĠOrbeg oso
Ġkurreg imyentukuna
ĠLuzuria ga
, (*
- )&
- âĢł
4 20
7 30
: -
: [
? ",
A D
A j
A puy
B ol
B ora
C all
E pi
E ph
E pÃŃstola
G ir
H ak
H ong
H ans
H ebreos
I shkay
J uch
K ut
K utupaksi
K runikamanta
L A
L amas
M uq
M ala
M uqu
N amballe
O re
O NA
P Ã¡
P ag
P oma
P utina
P lat
P ueblo
P irqa
P uno
P runus
Q as
R en
R ita
S uru
S upi
S ullu
S aka
T U
T re
T uc
T ag
T eresa
T unkurawa
W ampu
b es
b ÃŃo
c uri
c le
c ero
c ario
d ara
f uegos
g la
g Ã©
h or
h um
h Åį
i kuy
i tam
i ja
j Ã³n
j Ã¡n
m unku
m eta
n illan
r h
r ash
s p
s unkichis
t li
t mund
u ani
v ens
w els
y p
y qu
y arqa
Ã µ
Å º
á ¸
á ĳ
á Ł
æ °
ì ĸ
an taq
an ce
an ÃŃa
ta kiq
ch Ã©
ch tit
ll ayta
un kuna
aq pis
aq uel
is ach
ma t
ma ras
as pam
ar ya
wa hili
yu k
Ġp enici
ti pu
Ġll ullu
Ġll iph
ri ru
ri ondo
ku chkaq
man ku
man Ã¡
man tsik
Ġh iq
Ġh ump
Ġh aqaru
ya ka
cha kunawan
pa pa
ru q
Ġwa uq
Ġn u
Ġn ay
uk yu
Ġsu yasqa
Ġq irisa
Ġka puy
ĠP ap
ĠP om
ĠP apan
ĠP inipi
ĠP ennsylvania
ĠP ACHA
us ha
us etts
Ġch uru
Ġma l
ĠC G
ĠC anta
ĠC omm
ĠC asa
ĠC Ã³ndor
ĠS amp
ĠS oledad
Ġr anq
Ġd isip
ap ura
uy una
uy anchay
ur ante
ul os
on is
ĠÃ± uq
ĠÃ± usta
chi mun
ĠK uya
ĠK ulta
ĠK achiqucha
ĠK umbinsyun
Ġw iqi
Ġi glesia
ist anpi
en tin
en joy
ĠH ak
anqa yuq
anqa tam
ĠL luta
ĠL aris
ĠL awqa
es ÃŃa
ins on
aw are
ĠU ganda
ĠU lloa
ĠQ il
ĠQ umas
ĠQ iwuÃ±a
Ġkay na
ĠB and
ĠB ajo
ĠB eograd
arqan ki
ĠW uliwiyapi
ĠR ama
ĠR upa
ĠR uth
ĠI ya
ĠI chhu
kun kuna
taq ui
Ġqa raq
qu ya
Ġ2 29
ĠT ina
ĠT ej
ĠT Ã©c
kuy paq
chay wan
ĠÃ±iqin taq
Ġsuti cha
si c
si ka
ĠPi ra
yan kuna
kunata j
kunata chu
Ġt or
ĠJ ap
ĠJ isk
ĠJ iang
Ch uma
Ch uki
to to
ĠD am
ĠD ata
Ġqh ar
Ġqh ura
ci l
ci la
ci do
usqa yki
ĠG om
ĠG ol
ĠG lo
ĠG and
ĠY ung
ĠY oshi
Ġta ti
Ġta kaq
Ġta kar
Ġas n
Ġas wa
). [
ni gsberg
Ġyu ma
Ġkaq kunapi
19 2
Ġmun ayku
Ġmi kuyta
Ġmi cham
puy ta
Ġpacha taqa
ĠAn tun
ĠAn kara
Ġall payuq
co p
co urt
ca o
ca dos
Ġti q
Ġti an
tan te
ik lupi
ĠF un
da cty
Ġ3 30
Ġ3 28
Ġ3 80
Ġaswan taqa
wi ha
hu Ã±
Ġwan tu
Ġkiti pipas
Ġmay pis
tig a
pay kichis
unchaw pis
Ġhina Ã±a
ĠSan kay
ĠV o
ĠV illan
ĠÃ±aw ray
br on
lu hiya
Ġur ayninpi
Ġuma chaki
chiy mi
ĠMa ka
sa d
na dur
chaq mi
pan piqa
gu in
Ġan geles
Ġan hil
ĠChay kuna
go via
vi cen
Ġ18 3
Ġ18 47
Ġ18 43
iy kichismi
Ġc asa
Ġc unda
ĠIn Ã©s
ĠIn genio
ĠSuyu manta
Ġhay kun
Ġhay kuy
Ka pinuta
Ll at
Ġyachay pa
Ġ5 9
Ġyura pas
Ġriman i
Ġriman akun
acha wan
acha llanpim
iti wan
ĠO ffi
Ġwak chay
uni o
uni ya
ulla m
ash anku
Ġnispa taq
Ġkuti mun
ĠDi ablo
Ġyacha ku
Ġyacha qay
Ġyacha chinapaq
Ġyacha chikuy
lan ca
Ã¡n uco
Ã¡n cora
Ġham urqa
Ġwasi piqa
ĠLl osa
ĠWikipidiya ta
ura huara
18 4
18 39
18 79
18 72
18 63
utu yu
ĠRi ca
mara pi
yun pas
ĠDios ninchik
Ġriku chirqa
za cion
Ġmus yana
ĠAl aska
Ġqhaw arinapaq
anan chik
ba do
uta pi
Ġruw aqkuna
Ġkawsaq kunapaq
ĠKay na
Ġrima riy
In kisiwi
In dunisya
ampa j
Ġf ransis
10 4
ey mour
Ġqillqaq kuna
ĠPar qu
ĠPar edes
ĠLa ja
Ġtar ina
org an
Llaqta pi
Ġ9 3
ĠEs co
ui d
Ġ8 2
mayu pi
Ġsay arin
Ġkap una
Ġkap chiq
Ġkap unku
12 4
12 7
Ġ17 99
Ġkamayuq pas
ĠMi lton
ĠMi lagro
Chi qan
Chi Ã±i
Ġumalliq ninqa
Ġap ari
14 2
14 4
Ġyachaq i
ĠRuna kamaq
Ġaranway pi
Ġg as
Ġg igante
allqa mayu
Ġ12 4
Ġ14 92
vo wels
Ġkuyu ylla
As uwi
As unsyun
anchay ku
Ġ16 3
Ġ16 9
Ġsaq irqa
Ġ10 5
Ġris aq
ĠWay t
Ġph allcha
Ġqan kunamanta
Ġqan kunaman
Ġtuku chispa
dor ra
Ġqillqasqan ta
ĠMo vimiento
awi dad
Ġkarqa ptin
Ġkunan raq
Ġli bri
ĠFran sis
Ġak n
Ġwaq llin
Ġqillqaypi m
Ġwas is
Ġwas iq
11 1
sach usetts
Ġwawa kunawan
ĠRan ra
ĠLo urdes
Ġchask is
llin isa
à¤ ¹
Ġes te
Ġes piri
aqu ia
Mar cos
Ar chi
icha qa
ĠX VII
var o
gar ay
dr hein
ĠSal ud
phi ya
Ġkaynin kunayuq
Ġkun win
ĠNe uquÃ©n
tor y
ish wa
Ġtayta yuq
26 2
26 5
ĠÃ į
Tik simuyup
ĠMana Ã±a
avi a
Way sallpu
Ð° Ð»
Ġal Ã©r
Ġyanap arqa
eni um
ĠÎ Ļ
ĠAm or
ĠSo lier
Ġpukllaq pas
Ġakll asqan
Si chura
Ġ26 1
Ġruwan ankupaq
ĠRa dio
Allpa pi
Ġ29 0
gua dero
Mi hiku
Ġriqsi chirqa
Ġqhari kuna
Ġayllun pi
ĠØ ª
Î¿ Îº
Ġtiya puynin
mar ck
Ġkallpa chana
ĠVal verde
ard ino
ĠPal ca
Ġraki q
ĠEn ter
ĠBa ile
ĠCas tellan
Ġmar su
ĠAnta Ã±iqiq
Ġqo wayku
Ġpur ish
38 4
ham pu
Un siya
niyoq mi
ans u
Ġraphi muyu
ĠPuk aqucha
tar aqmi
Ġqanchis manta
Ġchallwa kunata
Ġtanta kuy
ĠÃĳawpaq taqa
ĠwaÃ±uy manta
tre cht
cul ar
War min
emp lo
Ġpas aqta
kas u
ĠYuraq marka
per t
Uru pisa
à¦ ¿
waq niy
Ã±o la
Ġsunqu manta
Ġyay kurqan
Ġpachakwata pis
ninku qa
Ġsonqo lla
Ti bet
ĠHuwan pa
ĠMer ino
Ġchura kuspa
Åį to
à¸ ²
Ġpaykuna pura
ĠAg osto
Le e
Ġkin wa
Î» Î¹
Ñģ Ðº
Ġmanchay ta
ĠFi erro
ĠSantu ario
Ġno vel
Ġwir p
Ġqelqa sqan
Ġrakin pi
Ġdis cipul
ĠMun ay
Ġqun qan
uriy unka
Ġash ta
Ġllak tapi
Ġwayllukuq mi
Ap law
Ġllumpa wan
dol ph
Ġrimanakuy ta
ĠBel alcÃ¡zar
ĠAll en
Ġchinchay suyupi
Ġmu hun
Ġsimikuna llapim
ĠwillaÃ±iq ita
Sh imi
Ġmunasqan kuta
189 6
ĠMe xico
ĠKan atÃ¡
Ġth aniya
Chaymanta taq
Ġqar anapi
Ġwankurisqa m
Uni Ã³n
end ero
Ġmask Ê¼
Ġå Ĳ
ĠSte phen
etro it
Ġchink ari
unkura wra
Bo gotÃ¡
Ġ? .
ÑĤ Ð¾
Ġsama rin
Ġlu ru
ski e
ĠSer gio
Rumi Ã±awi
Ġllulla kuspa
esa guadero
Ja cob
Ġkachkaptin qa
Ġins iklupi
Ġtaytan chis
Ġphaw rika
Ġquchu p
ĠKanada pi
ĠMis sissippi
Suy k
Os kar
Ġlaq his
ĠCen ter
ĠPuna pi
ĠPon tificia
Ġaq llasqa
ĠTawa manu
Tur dus
Ġmamay uq
ĠWiÃ±ay marka
ĠImay mana
ĠEdi th
uter ono
Ġmuyuriq ninpi
wam pis
Ġmunakuy wan
ĠYACH AY
ĠMur rupun
ĠOc ci
ĠPala cios
ĠHel en
chura qay
Ġhinalla puni
Ġkutin chiq
onta ine
Qullaw pi
rit ish
umpa ki
Ġpaka llapi
ĠMuru chata
Ġkachari chisqa
ĠAwstralya pa
Ġqhipan pi
Ġsuntu kunam
Ġqhal iy
ÃŃgen o
ĠAlemania manta
ĠAnto ine
ĠKe iko
hama d
ĠFrank furt
ĠCaj as
ĠTes tamento
Ġmaqay pi
anth era
Ġval or
Ð¸Ñ ı
Ġcont ranpi
ĠNata lia
áº ¿
ĠCora z
Wall anka
Ġho qar
ĠSanti waÃ±is
piya pu
Ġsaya chi
Ġbauti za
Ġupyan am
Ġbecario kuna
osto les
Santu ario
Ġinfec ciones
Ġcuen ta
ĠAstawan pis
ĠSupay qa
Ġestrep toco
ĠAni ta
ĠDistritu pi
bros io
ĠCopa cabana
Ġruraykamay ninmi
Leon ardo
aqo cha
Bu ena
Pre mio
Ġninki chis
xt la
Ġpuquch isqa
ĠUrb ano
Dan suyu
Qul cha
ipu ani
ĠPuri q
Apo calipsis
Ãĵ N
å¤ §
Ġhas p
ĠIS BN
Ġcaus as
Ġtukukuy ninmi
ĠAbi mael
ĠLatin o
ĠRim aqkuna
uliwi yanu
ĠViz carra
Ġkuta sqa
ĠNuna t
ĠInlis yapi
Ġachki yta
Ġnasyun kunap
Samuel pa
fal en
Ġoq har
ĠKatal unyapi
ĠRich mond
TAQTAQ TAQTAQ
Ġwillam uy
ĠInte grado
Pumaq anchi
West falen
ĠAis Ã©n
Tuktun kunaqa
Ġale ut
Ġemer gencia
Ġsindika tu
ĠmÃ¡ ter
Ã¼b ingen
Ê² Éª
ĠPine da
Ġvac una
hÃ¡ za
ĠÃĳuk ini
ĠBei jing
ĠNisqan qa
ĠInf ante
ĠOrganiza ciones
ĠJES ÃļS
Bella vista
Bus na
ĠHami lton
qull qi
huat l
ĠPlurina cional
ĠSU MAQ
ĠBasti das
ĠCompos tela
Ġyallin raq
ĠBarcelon api
ĠNurwig apa
Ġphist anku
Arhintin ap
enjoy peru
vicen cio
Ġraphimuyu m
2 18
2 28
3 10
8 10
: &
A way
A bra
A bel
B I
B ay
B run
C re
C ali
C esar
C entral
D L
D R
D omin
D yusqa
E ucal
F rente
F rÃ©dÃ©ric
G rigu
G loria
H ome
I p
I DE
I llanchay
K Ã¶
K uwa
L C
L ang
M ucha
M ejÃŃa
N ipa
O n
P lu
P ala
P uc
P ho
P uya
P api
P isi
P olylepis
R ans
S PA
T ina
T ro
T ayaqaqa
T usuy
U P
U sa
W aran
W anay
W anu
] ")
b la
b ita
b ona
b ela
c omm
c ala
c ancha
d z
e ve
f iy
g at
g awa
h y
h eng
i tuy
j on
j ata
k l
l illas
m ul
m ol
m pampa
n ay
n aw
o ri
p ulitiku
s ey
t ran
t land
v ina
v Ã¡r
w isqa
w ino
w orth
y oc
z imi
¥ ¿
± Ł
Î ļ
Ö ´
Ö ¸
× Ķ
å Ł
Ġ ve
ı å
Ŀ áĥ
an ayki
ta za
ch ariy
un qan
pi kuna
in ap
aq an
aq man
Ġk ara
Ġk ull
Ġk astillan
is mos
as y
kuna llata
mi kan
Ġs aniya
wa kunam
wa llqa
Ġp uraq
Ġp anin
Ġp unta
Ġp od
Ġp ueblo
ti kan
ti vos
ti tle
Ġll ipi
ri kuy
man chi
Ġh ach
Ġh illi
Ġh amanq
ya tana
cha i
cha lla
Ã± on
Ġllaqta manmi
lla o
ru t
uk ana
uk hu
Ġsu ys
Ġq es
Ġq iw
tu al
ĠP R
ĠP g
ĠP le
ĠP hasa
ĠP eralta
us q
us kan
us aqmi
ra g
ra w
ĠA wi
Ġch ika
Ġch umpi
Ġch antÃ¡
Ġma mi
Ġma ti
ĠC U
ĠC aran
ĠC lin
ĠS pi
ĠS uni
ĠS eo
ĠS har
ĠS car
ĠS aqapampa
Ġr asa
Ġr ini
Ġd im
Ġd ol
ĠM ej
ĠM eri
ĠM ullu
ur q
ur st
Ġm Ã©
Ġm isi
on ic
nin pipas
Ġa kuna
Ġa kan
Ġa wi
Ġa killa
Ġa gosto
ĠÃ± uqaqa
Ġsuyu kunapas
Ġpa is
Ġpa gan
Ġpa trun
Ġki chay
ĠK ey
ĠK ath
ist erio
en ko
ĠH y
ĠH ind
ĠL y
ĠL ur
ĠL ama
ĠL ujÃ¡n
Ġ" Â¡
ins ton
ĠU yaykuna
al s
ĠQ um
ĠQ ura
ĠQ ing
ĠQ inti
Ġkay paq
ĠB asi
ĠB ut
ĠB ulo
kun du
qu ita
ĠCh ul
ĠCh usun
ĠCh ulumani
ĠCh illanes
ĠT una
ĠT is
ĠT ala
ĠT ika
ĠT ecn
chay paq
asqa ku
llapi chu
ĠPi yu
ĠPi us
ĠPi la
yan mar
kunata chus
Ġt ant
el ine
ĠJ unta
ĠJ usto
Ch am
Ch uta
Ch hay
Ch iqu
Ch urkampa
to u
to ya
Ġchay aq
Ġchay pipas
ĠD Ã©
Ġqh ata
ci r
ci pi
ci ales
ĠG ay
ĠG uan
ĠG Ã¼
Ġqillqa ri
ÃŃ fico
la ve
Ġkaws aymi
Ġkaws ananchikpaq
). -
Ġu qa
aqta sqa
Ġay panku
di b
di th
Ã³ crates
kunapi ta
Ġyu paspa
Ġpi ki
Ġpi ano
19 3
19 09
ĠN u
ĠN il
ĠN ui
Ġmun du
Ġmun qhi
chis man
Ġmi kuna
Ġmi lla
Ġmi kun
kay mi
Ġpacha j
do y
co lor
tan s
ĠF auna
ĠF ebus
ĠF ontaine
um e
Ġ3 10
Ġ3 26
Ġ3 41
Ġ3 55
Ġ3 52
inki q
Ġhatun chan
Ġqallarisqa m
Ġmay o
Ġmay tu
Ġmay or
ĠwaÃ±usqa Ã±am
pay ku
Ġj e
Ġkama cheq
unchaw pim
Ġhina pin
ĠV ella
uti q
has qu
ĠÃ±aw iy
Ġima llatapas
Ġur an
chiy pi
chiy wan
ĠMa qa
ani e
chaq wan
way ru
pan y
pan tin
Ġrimay kunatam
Ġrimay pim
Ġpuk lla
Ġpuk aram
lli mani
ĠMar qu
ĠMar ca
ĠMar tina
kunam paq
vi ta
Kay pim
Kay lluma
Ġ18 27
Ġ18 48
Ġ18 04
Ġ18 55
Ġ18 58
unan ku
le t
Ġc en
Ġc ultura
ĠIn asyu
apa j
Ġhay unmi
Ka tidral
Ġcha kuq
Ġriman akuna
de f
pampa pi
Ġurqu manta
Ġurqu kunap
il ÃŃ
Ġnispa pas
ter y
Ġpus anapaq
Ġati pasqa
Ġ4 30
Ġhin aq
Ġama wt
Pi yu
ph ay
ph ylla
ph one
ptin taq
oq qa
Ġwill ar
Ãº ni
ĠRo ber
Wi tnam
ab amba
18 2
18 82
18 87
18 83
utu r
Ġpuch uq
ĠRi ku
An qara
Ġmus ya
Ġmus tasa
ĠAl ber
ĠAl ba
ĠAl ves
Ġqhaw arina
unku chu
ĠAr ms
ĠâĢł &
em ba
em onte
Chay mantaqa
it her
Ġimay ayninta
Ġaw ki
pin cha
Ġkus isami
bo la
bo urg
Ġf ar
Al alay
ĠPar ker
ton i
ĠLa valle
ĠAs wanpas
apan uy
ĠiÃ± i
ĠEs cal
Ġsutin kuna
Ġ17 3
17 1
ariy chis
ank s
ĠMi tu
Chi la
Chi paya
16 1
Ġtari kunku
ĠLlaqta pi
Is anka
awan qa
rq o
Ġyaku yuq
Ġyaku tam
20 6
20 8
20 20
Ġyachaq pa
Ġuywa ta
Ġuywa qa
Ġuywa kunamanta
ic us
akuy wa
Ġg e
Ġg ar
Ġg la
Ġo tros
pura qa
unchay manta
ver s
Ri vera
ĠRe ither
Ġqhaway ka
po la
uw intu
ĠCo to
Huk kuna
Ġkamachi kun
Ġkamachi kurqan
Ġqan man
ĠGu aj
Ġqillqasqan kuna
mo del
Ġsiq si
ĠMo hamed
asa pam
ĠSi ku
Ġatin kichu
Ġ20 21
ud ero
Ġwaq rayuqmi
Ġwas an
Ġwas ap
Ġwawa kunaqa
isi pi
Ġriqs ina
ĠLo yo
ĠNa z
Ġawqaq kunata
ankupaq mi
uer ta
uer za
ĠCor rientes
ĠBar th
Ġllank Ê¼
Ġrurasqa m
Ġukhu pin
Ġchun wayuq
ĠX XII
Ġrunap pas
los o
min istra
ĠSal asaka
Ġkash arqanku
Ġkash anchis
Ġkas ta
Ġkas hi
Ġkas taÃ±a
Ġpaqari chisqa
mu ptin
Ġ11 00
ug e
ug na
iru ta
ĠMon eta
niyki manta
24 5
Ġ28 5
ĠÃ ļ
ĠBo y
ĠHin am
Way chu
kar ara
Ġyanap as
áĥ ķ
AY TA
AY MI
Ġar te
tra ta
amb lea
Ġe val
ĠUq hu
ĠUq rus
Ġllim phu
ĠCol ora
Ġakll anakuspa
ĠRa d
eli c
eb io
Ġsan gu
Ġ27 1
Ġriqsi rqa
Ð¾ Ð¼
Ġsap ay
ĠØ ¢
ĠPe tit
ĠBe llas
ĠBe doya
Ro ger
ĠmaÃ±a kurqan
ĠmaÃ±a kusqa
ĠChunwa pi
mpa l
Ġkallpa ta
Ġsuyun tinpi
ÃŃs tica
sis mu
usa h
ĠPal ermo
Ġraki ri
unchik chu
ĠBa hia
ĠKulumbya p
ĠCa chi
ĠCon dor
Ġyuy arispa
Qusqu pi
ĠJesus manta
ĠCas s
Ġnis hu
Ġyach asqanku
chanapaq mi
Ġse q
Ġse Ã±or
Ġkapchiy mi
ĠUr dun
Ġruway kunamanta
Ki ki
Ki wicha
Pacha mama
ĠAra wak
Ġpro du
Say wa
Ġgrigu kunap
Ġllum ph
Puk llay
De uts
Ġyachan kichu
oj ta
gan cho
ĠNo va
ĠYuraq chawan
Ïģ Î³
waq ra
ell e
99 9
ĠLli kan
ĠRu wan
ĠKunan taq
ĠKunan pacha
Ġca pi
Ġca da
Ġhuklla chu
Yana urqu
ĠBibli api
urun chu
ĠHer tz
Ġqhawa chiy
unki ku
ĠJa zz
ĠJa huira
Ph allcha
uksi yn
Ġkuru r
Ġkuru ray
ĠMal wina
Î» Î¿ÏĤ
Ġwaqachiq kuna
ĠAqu ino
net h
rina tu
Ġapam un
Ñģ Ð¸
ĠFi re
ĠFi del
Ġkawsaykuq kunap
Ġtullu wan
Ġrapra kunayuq
Ġwis inam
ĠBil arus
Ġpirqa m
au ca
Ġqun qay
Ġro ga
ĠChurin chus
Arhintina pi
ze qui
Ġwapsi kunam
Ġpaqta chi
ĠNor ma
Ġchaskin anpaq
Äģ ng
ĠÃ±isqa pas
ĠSuy sya
ĠBel en
old Ã¡n
ĠTh or
kush pa
Tawa manu
Ġcas tellano
ĠAt lÃ©tico
ĠAt lanta
Ran un
Ba ja
Ġhinaspan mi
ĠCi vil
ĠGi an
Ġrimasqan ta
ĠHinaspa pas
ĠHinaspa taq
ĠhuÃ±unakuy pa
Ġkamaq illqa
Ġharawi kunata
ĠLu ÃŃs
Ġkuskan chaku
ĠPanama pa
Î· Î¼Î±
Kh illay
sk rit
ĠRiv as
Ġsipi rqanku
Ġtiyay kurqan
Ġparl arqa
Ð´ ÑĢ
Ġtra dis
Ġyanapan apaq
Ġrayku m
Ġqutu qa
Ġraw ran
ĠUN ICEF
ĠParawayi pi
ĠSol er
ĠLin nÃ©
uran kichu
ĠFo x
Ñĥ ÑĢ
ĠMil an
Ġawqan a
Ġachkiy qa
Ġurqukuna Ã±iq
ĠSala do
Ġkill aq
lat erra
Ġruwaynin mi
ĠJesuc rist
Ġgra do
ĠIndi ana
ĠIndi gen
ĠCons titucional
ĠAng ulo
Ġnan ometro
Ġreqs in
Ġsuma k
Ġchuk chan
ĠAran i
ĠImay nan
Ġé ĩ
ĠphiÃ±a kuspa
Ã´ nio
ĠMur cia
ĠGrisya pa
Ġsinchita puni
ĠPachamama p
Ġkis wara
ĠMuru qucha
Ġtiqsimuyu p
masi yki
ĠMÃ¡ ximo
ĠKam aq
ĠQall u
Ġpusaqnin kunaqa
ĠMac ÃŃas
Nor man
ĠGeorg es
ĠMit chell
ĠPl anta
ĠPrin ces
Ġray min
kunanku paj
ĠEsc udero
ĠEspiritu qa
Ġmuksichaq wan
ĠFa ustino
Tu may
Ġthas n
Ã¼r k
ĠElis abeth
Qalla w
Qalla wap
ĠPuq uqwata
ĠMora zÃ¡n
ĠayÃ±i yuq
Ġinf ectasqa
ĠPorto viejo
ĠtÊ¼ uku
ĠGor bach
Puna ta
ĠPutu mayo
tim ore
Para qas
bas e
ĠWis aw
ĠAlvarado p
Ata kama
Augus te
miri qi
Vir ginia
ĠBerm ejo
osi f
kunanka m
Waw qi
ÉĻ r
anqan kunata
ĠAq ri
Ġinfec cion
Ġpillun ya
Ġpillun yayuqmi
ĠSuma ku
Ġprovincia pi
Ġilik tr
ĠBran do
Ġsaman ku
ĠDom enico
Aliman Runa
ĠKy Å«shÅ«
ĠRod rigo
Ġtaripan apaq
ĠShan g
Ġqillqar qanku
Chiki tus
Ġkachkay ninmi
Ġqullq isapa
foli us
Mik hail
Sap ara
lag ros
Mish ana
Ġmunapay ankichu
aykusqa yki
ĠÃĳo qan
ĠHinas pam
ĠAme lia
ĠInlis yan
ĠOax aka
Bud dleja
esc ens
ĠIm perial
Ġqiq llam
Ġcristian os
yce tes
ĠStu ttgart
Ġnatu ral
ÑģÐºÐ¸ Ð¹
Machaqa marka
ÄŁ lu
ĠKami run
ĠHuaman ga
isal eo
ĠRepubli kanu
vÃŃ k
ĠDami an
ĠOm iste
Barran ca
åį Ĺ
ĠNazar et
ĠBrook lyn
Ġvulgar e
Rob in
ĠHanka pi
ĠTU KUY
ĠAmp lio
ĠYuk atan
Noth ofagus
ĠBy ron
ĠYeru shalayim
Ã³f ilo
ĠBah ÃŃa
Ġinterna cional
Regi Ã³n
Ġmateri al
ĠYuguslaw ya
ĠMagn us
Ġkhar ka
ikll uriy
Ð¸ÐºÐ¸ Ð¿ÐµÐ´
amana ku
uph or
Philipina kuna
Afgan suyu
Ġrino virus
Ġkusis amin
kja vÃŃk
ĠQiris ankunaqa
ĠArms trong
ĠLoyo la
. (
2 14
4 80
4 60
6 40
A ca
A ve
A LLA
C l
C us
C ora
C oro
C ruz
D O
D ec
D ia
D ic
D urazno
E ccles
F l
G usta
H al
J ak
K ul
K ulum
K lasiku
K lisa
L aram
M ayta
M aran
M eg
M uksi
M unakuy
M achiqinqa
N aw
N apuruna
N uevo
P le
P hirriÃ±aphi
R imaq
R Ã³mulo
S ul
S hina
S aca
T una
T is
T ull
U W
U m
U ra
U qi
U qshapampa
U quri
V illar
Y uk
Y uyu
a kusqan
b s
b ina
b ak
d uk
d ina
d res
d ard
d ge
f una
f ÃŃn
f eld
g dal
g uria
g erald
h ru
i taq
i ano
k ey
k tor
m ush
m uksi
n ar
q mi
q iy
r anta
u ar
w aymi
x ia
z aq
³ å
Ñ Ĭ
× ĵ
Ù ¾
æ Ĺ
æ Ń
ç ¾
è ª
è ĩ
é ¾
é Ļ
Ġ ]
Ġ Ê
Ġ amay
Ġ ush
Ġ Ïĥ
an or
ta ro
ch q
ch or
ch ÃŃn
ll uni
un k
ay as
ay kuy
pi tam
in ter
aq yay
is tuy
ma e
ar um
mi tri
Ġs aw
Ġs hin
Ġs illu
Ġs cript
yu pay
Ġp rin
Ġp aqucha
Ġp uÃ±uq
Ġp unki
ti p
ti ti
ti mo
ri en
ri to
ri kanu
man go
man ga
Ġh ana
Ġh acha
Ġh ac
ya ptin
cha k
cha ca
cha kunamanta
Ã± uqa
Ġllaqta huÃ±
lla manmi
lla jta
Ġwa kipi
Ġwa chaspa
Ġsu p
Ġq illay
Ġq usqan
tu wan
Ġka mana
Ġka tuliku
ĠP aqu
Ġnisqa kunap
ki pas
ĠA tun
ĠA chuqalla
Ġch iw
Ġma manqa
ĠC lu
ĠC ano
ĠC ita
ĠC amargo
ĠS aqa
ĠS hin
ĠS upa
am en
ap uq
ap Ã¡
ap ash
uy ku
ĠM uch
ĠM ing
ĠM apu
ĠM eza
Ġsimi tas
Ġm sn
ul d
uq sina
Ġ1 14
Ġmama kuna
Ġa vi
Ġa kwa
Ġa ten
Ġa lab
Ġa tska
Ġruna paqmi
ĠÃ± i
ĠÃ± anmi
ill un
ill tu
ill anu
er y
chi kunqa
chi hÅį
Ġpa chanta
ĠK A
ĠK os
ĠK ash
ĠK AN
ĠK aranki
ĠK uyllurkuna
Ġi thi
ĠH QS
anqa y
ina qa
ĠL ip
ĠL ob
hi d
ĠU sh
al ac
ĠQ uer
ĠB l
ĠB rid
arqan chu
ĠR uraq
ĠR aquel
ĠI g
ĠI ni
ĠI xiamas
ĠI kitus
kun kuchu
taq chu
taq chus
Ġqa rqa
Ġqa pari
at s
ĠCh uki
Ġ2 31
ĠT E
ĠT us
ĠT et
ĠT aypi
ĠT AKI
kuy ku
kuy kunaqa
kuy kunamanta
chay kuna
chay oq
asqa s
asqa manta
asqa taq
si to
si co
Ġkarqan i
ĠPi lat
Ġwatapi pas
Ġkan am
kunata pis
Ġman chakuq
qar ayku
ari Ã©n
Ġkillapi qa
ĠJ awa
ĠJ il
Ch ap
Ch ul
Ch hu
Ch uchu
Ch enopodium
ĠD y
ĠD os
ĠD Ã¼sseldorf
awa k
ĠY atana
ĠY anamayu
Ã¡ lis
Ġta kay
Ġta puri
") "
la ine
Ġu fisyal
ach anta
aqta y
ucha lli
Ġay paq
Ġay pay
di r
Ã³ g
Ã³ z
Ġpi m
Ġpi tu
19 26
Ġmana chayqa
ĠN aw
ĠN ak
ĠN iw
Ġmi l
Ġmi cro
re to
Ġpacha kuna
Ġpacha Ã±as
ĠE N
ca pi
Ġtu pay
Ġtu puna
uch arqa
ik ta
ĠF an
ĠF lamen
um puy
Ġ3 36
Ġ3 59
ol did
hu ma
tig as
pay aspa
Ġhina man
armi ento
ĠV Ã©
Ġmunisipyu mikan
lu enza
chiy man
chiy paq
ĠLi bera
ĠLi echtenstein
Ġqucha kunapas
gu enga
Ġis pi
Ġan kucha
lli a
ĠMar c
ĠMar ina
kuq chu
go ku
Ġ18 5
Ġ18 12
Ġ18 11
iy ka
Ġc ura
apa chika
Ll am
Ġyachay mantapas
Ġyura ta
pe che
Ġra kha
Ġra tata
iti manta
anku kama
Ġrur arqanku
ĠO so
ĠO tto
Ġpuq uchiq
Ġmayu pas
Ġkuti mus
Ġkuti cherqa
Ġwarmi manta
Ġyacha kurqan
Ġyacha kunanpaq
Ġpay kunapaq
Ġ4 40
Ġham us
Pi chqantin
Ġwasi cha
Ġwasi kunam
Ġwasi taqa
Ġwasi kunapas
oq tin
Ġwill aynin
Ġwill arqanku
Ġwill arina
ĠRo c
ĠRo mano
ĠRo gers
uru s
hina lla
hina chu
ura w
18 30
18 36
18 59
et to
et ras
yki wan
An n
An na
An tar
qsi tan
ĠAl alay
Ġqhaw ar
Ġpukll arqan
ĠJes uita
Ġmikh urqan
em is
Ġhanaq manta
Ġb e
Ġb ur
Ġkatiguriya kunam
Ġkus ma
rus pi
ja i
ayki man
ayki kunata
ayki chejpaj
10 5
10 8
Ġpusaq kunawan
ĠQusqu manta
ĠMan ejo
Ġqillqasqa ta
Ġ9 8
Ġ9 80
ern ales
war una
15 8
Ġ17 4
Ġ17 90
riy nin
ĠMi ck
illay qa
Ġpuri muq
16 5
Ġtari paspa
ano i
Ġumalliq kuna
par dus
14 7
14 38
ĠAma s
13 1
13 8
Ġyupay chasqan
20 7
uya ta
Ġ12 2
Ġ12 6
Ġyan usqa
Ġchi qari
dad os
Ġmas inta
Ġkasqan chik
Wa Ã±a
As tro
As arsuyu
As naqucha
anchay mi
anchay ki
ĠhuÃ± un
ag h
Ġ10 8
Ġ10 9
ĠWay llay
Ġkamachi rqa
pacha manta
Ġkamachiy qa
ĠSe govia
mp urqan
Ġllaqtakuna s
ĠMo che
Kunan kamapas
ati o
umi rq
Ġ20 2
Ġtiy asqan
aku sqa
chisqan chik
pus h
muq u
Ġlaya kunatam
Ġunquy paq
ĠRan kin
ĠLo zano
ĠÃĳ uqaqa
ĠBar ra
Ġes tero
Ġes tudios
Ã©n Ã©
Ġsinchi chu
Ar sen
ĠWan ay
ĠPas cu
Ġkaynin pa
Ġwakin kuna
Ġkun da
ĠAya marq
ĠNe lly
ĠMon treal
27 2
Ġchaski yta
Ġ24 1
Ð¸ Ð»
kusqa manta
26 7
26 8
ko p
ĠQillqa sqam
ĠSunturnin taqa
ĠHin aqtin
ang ul
Ġmuyu ta
Way t
Ð° Ð´
Ġ30 9
Ġyanap aspa
Ã±i wa
Ma ka
eni x
ĠÎ Ķ
Ġar e
olo gi
ĠSo usa
tr yapi
ĠGar d
Ġruwan ki
ĠRa velo
Ġllaqtan chis
Hu a
ĠRepublika pas
eb amba
mpi a
Î± ÏĦ
Ġriqsi kuq
ras ya
Î¿ Î¼
Ro manos
ĠiÃ±iy pa
ĠiÃ±iy manta
ad os
ĠAb ril
Ġkallpa chanam
ĠTi kipaya
Ġtiyaq lla
aspi cha
ĠVi ejo
ĠChinchay suyupi
ĠKulumbya pa
Ġimaymana kunata
gra m
ĠAw ariku
ĠCon ejo
ancha tam
ĠBer kel
Ã¤ n
Ġpachan pi
Ġpachan ka
Ġmaqanakuy pa
Ġruway kunapi
ĠMusuq llaqta
ĠAra wkaniya
be k
Ġvi ol
ord s
ĠNew ton
ulun yapi
Ġapa kunman
Ġapa chim
usqan rayku
zar t
Ġwamani piqa
Kun chuku
Ġllika piqa
ĠwaÃ±uy ta
Ġqhatu kuna
Ġqillqan apaq
ĠÃ±an kuna
Es ta
Inka wi
Î¹ Î½
Ġtantanakuy ta
ĠHo pe
à¦ ®
à¦ ¯
Ġsir inka
ĠYana urqu
win tu
Ðº Ñģ
Ðº Ð¾Ð²
kam ullaway
rim uyu
ĠQan kuna
Ġsonqo yoq
Ġchayam uptin
urun di
ĠVilla mil
Ġrikun ankupaq
ĠCrist obal
Ġurin pi
Ġyanapa kun
Ġyanapa wanchik
Ġmuru cha
Ġmuru chan
ĠEstado pa
ĠHuwan cha
Ġtuktu cha
à¸ §
Ġrura kun
ĠwaÃ±uch ina
ĠKaw ri
Qusan ËĲ
Qh aw
Qh ali
ĠHar awi
Con dor
Le oni
Ġtiksi muyuntinpi
ĠMal asya
Gu ar
Gu alberto
tÃ¡ r
Î» Îµ
ĠAqu piya
ren sa
Ġapam urqan
ĠpuÃ± un
ĠFi esta
ĠKh arab
Ġno qanchis
Ġtuta manta
Ġrakin chik
ĠCab aÃ±as
Ġqun cha
Ġqun tay
op tera
ĠGran da
Ġchaskin ku
Ġchaskin apaq
ĠCom pany
Ġinka kunap
ĠAllpa pura
Ġinlisya m
ĠRikch arimuy
kush ani
Mat hiyup
Ġyachaywasi kunan
chen ko
ĠYupan qui
Imay ay
Imay natÃ¡
76 8
Ġrik chakuna
Ġhampikamayuq mi
Ġkamachisqan ta
189 2
ĠEd win
Ġth aqu
ĠmaÃ± aq
Ġqar quy
ĠGra ce
ĠGra ham
tori os
ĠYupanki p
Ġqos qan
ĠYay ayki
Ġsipi sqa
Ġshimi ta
ĠSap hin
Allin ta
Ġparl aspa
ĠSam wa
Chak ana
ĠPara tiya
Qu Ã©
Brasil pi
Qan kuna
Na ciones
tachu elo
Ġkamarirqan ku
Ġruntu ta
ĠBor deaux
ĠØ§ÙĦ ÙĤ
Ġwarma kunam
ĠLouis iana
ĠTay ik
ĠRusiya p
ÙĪ Ø¯
Willka waman
Ġmach kha
Ġmiray ninmi
Ġkill ikacha
ĠPak araw
rima chi
ĠKanta ray
ĠSebasti an
ĠOli ver
Ġqespi sqa
umin ense
Ġyachar quchiq
Ġkinray pi
Ġ× ©
Ġ× Ļ×
Ġsuya kuy
Ġtan qana
dic ina
ĠEdi tores
Ġé ķ
rÃ© dito
ĠÄ Į
ĠHe inrich
Ġsiw is
Ġsis pay
kis isyun
ĠPala bra
Ġpachamama p
Ġpachamama ta
Ġsim inku
chupa lla
mad ura
Ġcuer p
bir ya
ĠKura k
ĠAlexand re
Ġkurakan mi
aram uri
Ġmisti kuna
ĠCam ino
tuk tu
ĠChaw pin
Ġapan apaq
ĠDar win
SI L
tinku taq
Ãºbli co
Puma pampa
Ġhor q
ĠApa chi
Ġher man
Ġthas ki
ĠÃģlvar o
Ġllaqtacha pi
Ġami gon
Ġnac esqan
ĠDor is
ĠKing ston
ĠAh mad
Ð¸Ñ ħ
ĠPachakuti k
Siw as
Ġkut is
Az urduy
ĠPuy ka
Ġtull pu
tir yu
ĠKustarika pa
ĠNata wila
ĠHuanca velica
Ġkilu mitru
ĠGall ardo
Ġkhi pu
Ġsol dado
Ġchuq llu
Puru s
iquq m
ĠFitz gerald
ĠtÃ©c nica
Ġkum pusitur
Ġsamari kuna
ĠSeg undo
Ġpall asqan
ĠHas san
ĠsutÊ¼ in
nej ta
Ġchik chi
Ġyupana manta
ĠGuay aquil
ĠRod rigu
Ol medo
à± į
ĠSel ect
ĠKÃ¶ nigsberg
Inter net
Ġqillqar qa
ĠTiq si
Hy po
Ġkamariq ninsi
ĠPre mio
Ġ-- &
ĠWell s
Ġhawka lla
Yawa tisuyu
lyn n
ĠCul tural
Gas ton
Qa taq
ĠKol kata
Ġapus imi
ĠHun ter
Apa chi
ctu bre
ĠRak yi
Bon garÃ¡
Sami rya
ĠMani la
Ġiskuy la
Seg unda
Ġmanyan pi
ĠPumaq anchi
Ġinfor me
Cami lo
ĠJis usqa
ĠBarre da
Nico las
Men doza
Ġpla z
ĠCant on
Ġries go
ĠBamb as
Ġmayun kunapi
ĠPati willka
ĠHitler pa
Ġpoq oy
rusi ru
Ġsuyay kamullaway
Ġmachaq way
Ġkuyuchin ayuq
ĠTinta ya
Ġyuman ayuqmi
tain ment
Ã¡te gui
Ġphaq cham
Ðļ ÐµÑĩÑĥÐ°
llak tapi
ĠBolivi api
ĠGobi erno
Ġram ran
ĠDef ens
ĠFernand ini
Rum ex
ĠAlcal Ã¡
Ġboli viana
Ġlicen ci
Ġserv iq
Ġtukuri kunqa
Ġcontribu ciÃ³n
ĠKillka tina
istotel is
Ġ:: *
Ġbir manu
Ġbrasi li
Ġllata pi
ĠLÃŃ pez
Ã¤nam paq
ĠEmanuel e
Ġperson al
ĠÆı li
Amaran thus
Ġqonqo riyku
olklor e
ĠAvel ino
Ġcrec imiento
thodo ksa
Ġqaraq ruyu
ĠData base
Ġkapuna kuq
ĠEnter tainment
IDE SEP
Ġmsn m
ĠBerkel ey
- ).&
1 000
2 12
2 21
5 40
? .
A F
A chu
A wi
A jina
A riq
A KUNA
A tucha
B ran
B olognesi
B atallas
C api
C aca
D un
F ab
F aringitis
G ol
G uer
H ata
H aku
H eb
H iki
I k
I chhu
J in
J am
J ab
K on
K uch
K ara
K hu
K uriya
K uku
K ali
K amay
K ulli
K untisuyu
L us
L ayqa
L amar
L anki
L araw
M G
M ut
M akiy
M usi
M ate
N ikarawa
N arciso
O ro
O mar
P O
P la
P ol
P asa
P ish
P se
P achaykamay
Q ip
Q ha
Q uis
R ata
R ec
R AP
S S
S is
S om
S hun
S han
S eb
T iti
T oc
T inta
T hak
T ex
U si
W ana
W ara
Y anaq
b in
b ei
b randt
d ri
d ip
d ino
d suyupa
e ba
f ur
f os
f usi
f ederaciÃ³n
g us
g ali
g uro
h aw
i os
i che
j s
j manta
k or
k llu
k isa
l yu
m ura
n ap
n berg
o mi
o or
p yu
p po
p urqa
q uqucha
s ol
s et
t ry
u ve
u puraki
v ari
v ec
v ern
v ang
w aryu
w ei
y b
y ia
» ¿
Ã ¦
Ã ®
É ¾
Ñ Ĩ
× Ĳ
× ĳ
á ¼
ã ģ
ï »¿
Ġ Ã¡n
Ġ uqu
Ġ educaciÃ³n
an are
qa tilla
ay kama
pi dium
in er
in ia
in ing
aq ri
aq chi
aq kunamanta
aq chus
Ġk hayna
is wan
ma g
ma mi
ma pis
ar di
ar rÃŃ
mi te
mi ros
mi rano
Ġs inku
wa j
yu ra
Ġp uku
Ġp laza
Ġp ampan
Ġll una
ri j
ri qa
ku pu
ku sa
ya cÃ¡
pa g
pa ca
pa qari
Ã± aq
Ã± uta
lla pan
lla pata
Ġwa li
Ġwa wi
Ġwa chakuq
Ġn unan
Ġn ega
Ġsu er
Ġsu yan
Ġsu phu
Ġq unku
Ġq Ê¼
Ġq ukunanpaq
tu b
tu manta
tu si
ĠP ei
ĠP etro
ĠP umaqucha
ĠP uebla
Ġnisqa kunawan
ra x
ĠA ja
ĠA qus
Ġch ari
Ġma drin
ĠS way
ĠS ho
ĠS ami
Ġwata chÃ¡
Ġwata yuqmi
Ġd uk
Ġd ic
Ġhuk llam
am us
ap ullu
ap usqan
ap tinsi
uy mi
uy wa
uy tura
ĠM ons
ĠM illay
ĠM awri
ur pin
ur qhi
iq chi
iq tan
iq uta
Ġm isa
yuq ta
Ġ1 11
on imi
nin kunawan
Ġa qa
Ġri w
Ġruna k
Ġruna chÃ¡
ill ir
chi kurqanku
Ġpa l
Ġpa lla
Ġpa llana
Ġpa cienci
ĠK ra
ĠK er
ĠK hu
ĠK ull
ĠK Åį
ĠK insa
ĠK allu
ĠK atherine
ĠK ardinal
Ġi ch
Ġi mpa
ist ro
en qay
en der
ĠH and
ĠH ora
ĠH eb
ĠL aqha
ĠL IB
ĠL jubljana
ins k
ins ha
hi ma
hi to
hi re
os um
ĠU ll
paq u
ĠQ uebec
Ġkay niyki
Ġkay nata
ĠB res
ĠB ad
ĠR inc
ĠR hein
Ġde mo
ĠI kuwa
ĠI llampu
ĠI kwayur
kun tin
ĠCh ec
ĠCh ui
ĠCh ukuy
ĠCh ang
ĠCh alla
ĠCh ad
ĠCh uco
Ġ2 21
ĠÃ±iq piqa
ana wan
ĠT rist
ĠT atan
ĠT bilisi
Ġya ws
chay ku
li ana
Ġsuti y
Ġsuti charqanku
si l
si cos
Ġkan qanku
yan o
may pi
el es
ari chisqa
ari rqanku
Ġkillapi m
uyu y
ĠJ ama
Ch or
to kuna
Ġchay ar
Ġchay ananpaq
uli us
ĠG ates
ĠY ur
ĠY ac
ĠY UY
om et
om ento
Ġru asqa
la i
la vi
ip tinsi
Ġkaws akuy
Ġkaws achun
Ġqall ta
kch Ã¡
ni pi
ĠwaÃ± ura
Ġyu raqmi
Ġpi cha
19 05
all ay
all ku
Ġllamk arqa
Ġmana llataqmi
ĠN am
ĠN ol
ĠN asa
ĠN apo
ĠN agasaki
Ġmun anakuy
Ġmi k
re al
pu m
pu Ã±
Ġpacha tam
Ġpacha kunaman
do lo
ĠAn anta
ĠAn asta
ĠE i
ĠE mpal
co lo
co bamba
Ġti j
asi y
ĠF lynn
Ġ3 23
Ġ3 90
ol Ã¡
ol ulu
), "
te x
Ġhatun chasqa
ha o
Ġwi char
llan chik
llan taqmi
llan eda
Ġmay ord
Ġj unu
ĠV ac
ayta wan
ĠÃ±aw inchay
ĠÃ±aw ram
Ġima taq
Ġur q
Ġur ku
ĠLi on
ĠLi tuwa
ĠLi toral
Ġqucha piqa
sa qa
na h
na z
na val
gu irre
Ġallin man
Ġis tad
lli ru
ĠChay n
ĠChay kunata
ĠChay pis
vi an
Ġ18 4
Ġ18 51
chin chikmi
Ġc arro
Ġc ump
Ġc ambi
ĠSuyu kunata
ĠSuyu kunamanta
Ġhay wan
Ġhay kurqan
Ka pi
Ka cha
Ġcha ku
Ġcha kunapaq
Ġcha kiy
Ġcha mpi
Ġyura kunapi
iti qa
Ġurqu wan
ĠO se
ĠO bre
Ġkach arin
Ġkach kasqa
Ġkach arisqa
Ġpuquy kunata
Ġyacha qa
ce lli
Ġkar ulla
Ġpay wanmi
lan u
lan do
Ġ4 000
Ġ4 70
ĠChi ang
ĠChi rinos
Ġham uyta
Ġham uptin
Ġama puni
ptin Ã±a
ĠLl ap
ĠLl ull
Ġwill anakuy
Ġwill ariy
ĠRo cha
rin o
ant hi
ec tos
18 44
18 43
et ty
Ġchunka chÃ¡
yki p
yki pas
Ãĳaw i
Ġsi qay
Ġsi pasqa
Ġancha tas
Ġ6 50
Ġinti ta
anan chis
uta s
Ġruw li
Ġruw arqanku
Ġruw ayninta
Ġruw asaq
em es
aqa ya
Ġrima r
In ca
Ġaw qarqan
Ġb en
ĠPa chitiya
hin apas
ayki m
th umb
Ġf ru
10 9
amp ari
ĠPar ina
tal ina
ĠAs unta
Ġwilla kusqan
ĠMan as
Llaqta p
ern amb
ĠIs lam
ĠIs kuma
ĠEs tela
15 4
15 7
12 9
17 6
17 8
17 9
17 80
Ġkanqa chu
ĠKi ki
ĠMi ihiku
Ġtari yta
Ġtari rqa
Ġtari pakuq
Ġqhi p
Is luwakya
Is tunya
Is muruku
Ġyaku kuna
20 2
20 5
apusqa kunata
Ġuywa kunatapas
ho ku
ĠHu dyu
Ay ha
Ay muray
Tayta kura
Ġchi riya
ver ry
ĠZ ar
ĠRe ina
Ġkasqan kurayku
ing er
Ġ16 8
ĠCo fÃ¡n
Ġsaq ru
ĠAy o
ĠWay anay
ami llu
Ġhampi kuynin
Ġtuku kuynin
Ġtuku kuchkaptin
bi eto
tay Ã¡
mo v
ĠMo cha
ĠSi yu
ĠSi pas
ĠSi ena
ĠSi cilia
suyu p
Ġkarqa ku
Ġatin kuman
Ġkunan kamaqa
ĠFran cia
ĠPay pi
Ġtiy arqa
Ġwas inku
Ġtarpuy ta
Ġpuchukaynin mi
Ġqullqi cha
Ġwawa kunaman
Ġunquy pa
ĠRan tin
Ġriqs iq
Ġawqaq ninkuna
à¤ µ
ĠÃĳ anpa
ĠBar r
ĠBar inas
ĠBr asi
Ġes peci
aqu ÃŃ
ĠÐ ¼
ĠWan sa
Par uru
Par tidu
osa gua
ĠX VIII
uchu kuy
gar d
gar o
Li chi
dr un
Ġkas an
Ġkas pan
Ġkas panmi
ps on
phi la
Man awi
ĠNi Ã±o
Ġkaynin ku
ke qa
ĠNe p
ĠNe u
ĠMon tana
Ġ24 9
kusqa chu
ko k
ĠDe b
ang ate
Way ruru
Ġ30 5
ong os
ĠUn siya
Ġatiy ninmi
Ma urice
AY KU
ĠÎ ķ
Ġkasqa chu
Ġyawar pi
amb or
Ġjina chu
ĠPo p
ĠPo z
Si ra
Si erra
AQ KUNA
Ġllaqtan chikpi
Ġruwa kunman
eli us
Ġwaqay cha
Ġ29 9
Ġnina ta
lor inda
ĠQispi chiy
Ġchanta pis
chej qa
ĠBe ll
der e
Ġchaq ra
ĠmaÃ±a kusqan
ĠiÃ±iy mi
nes see
Ã« ta
Ġkallpa chakuy
Ġsutichasqa qa
ĠPal o
ĠPal pa
ĠPal ama
ĠPal awra
ĠTe ch
Ġdi riktur
ĠManuel cha
tur pa
paj qa
anchik ta
Ġmaqanakuy paq
ĠUr ku
Ġruway pi
ham in
Ġpro gra
Ġ= =
so a
Ġkh ach
Ġkh uskan
Kaw pay
LL ANA
Ġchallwa kunatam
Puk aqucha
Ġdes ensi
ĠwaÃ±uy ninkama
Ġhun yu
Ġyachan kichis
Ġpuriy nin
Es meraldas
ĠChaymanta taqmi
Inka kuna
od os
Î¹ ÏĦ
Ġsimin qa
ĠHay k
Ġuku ku
ell es
Ġllaki kuy
ĠKastilla p
ĠGarc Ã©s
kam us
Ġyay kunanpaq
ĠAws tiriyapi
Ġqhe chwasimipi
col Ã²
ĠLli mphiq
46 4
dre ou
Ã©r cito
achi m
65 1
Ġtin kun
ĠTar aputu
ĠQh awariy
ot ti
unki man
Ð» Ð¾Ð²
Ġcom ple
por qa
à¸ ±
ĠPablo qa
ĠGre gor
kash qa
Ġ189 4
ĠAg raria
Ġup y
ĠVel Ã¡squez
Ġunu manta
Ġunu yuq
uth us
Î» Î±
runa simi
AR IY
ren as
Ġmuch uspa
Ġqara manta
Ġqillqay ninmi
Ã§ on
Aw ki
Ġtuta ta
pur ina
titu t
dis play
Â» )
Jes uspa
op Ã³
Ġakllasqa m
Ġwapsi ta
Ġpaqta chasqa
Ġlluqsi mun
ĠNor drhein
ĠGen Ã¨ve
à¥ ĭ
Kar tulsuyu
Ġæ ľ
ÙĬ Ø²
Qar as
ĠFer dinand
Ġwatan ku
ĠWal t
Ba hamakuna
Ale ksand
ĠBu tanika
Pal pa
ĠMinist runin
Ġchinka chinapaq
Col Ã³n
Ã¯ ta
Mon talvo
Ġon qo
ves tiga
Ġqos unkichis
ĠMus ika
Ġper qay
ĠSuwi dsuyupa
Ġinter cultural
ĠPuma p
ĠCu vier
Ġtra to
ĠGal indo
uska kuna
ĠPaul us
Laguna s
Mari ya
Ġjam ut
Ġchaninchasqa m
Ġyapa kun
ninchik ta
Ġser vin
ĠRegi onal
ĠFre derick
ĠBor go
ĠLin coln
ĠAz urduy
ĠØ§ÙĦ Ø¹
ĠIlanda pa
Ãł n
vel and
Ġqallariy ninpi
Ġsa hun
wasqa yki
Ġtaytan pa
Killa pampa
Ġkill mu
ĠPak aqi
ĠÃĳaw iriy
ĠEmi l
ĠJerusal enpi
à® ¿
ĠKawsay manta
Ġruq yayta
ĠLar aw
dan eta
ĠHuay na
ĠBos que
Kus kan
Ġgu bir
Ġsonqon ta
ÅĤ o
Ġmamay kuna
ĠIr ma
ĠIr landa
ĠPeter s
Ġshu tin
Ġkaj ta
ĠAliman Runa
rÃ© m
tien ne
ĠCat egory
ĠFor taleza
Ã¢ nia
ĠSab o
Kis kachay
Ġyachana kuna
ĠpolÃŃ tico
tem berg
Be atriz
Gi an
ĠMacha do
apsi cum
ĠDem oc
Ġmunanku chu
Ġrimaspa qa
ipay anku
Ber lin
Isa ac
ĠChaymantataq si
Pak aqi
ĠIspaÃ±ul kunap
ĠpÊ¼ unchay
ĠCe lia
ĠOro zco
Ġuyay chasqa
Ach kha
Ach ille
LLA J
Ġsam un
Ġsam aq
Ġjucha lli
Ġphista kunku
Shi pi
Ġllaqtacha piqa
llapaq chu
Ġkhillay manta
yr Ã©nÃ©
ÏĨ Î±
inus awru
ĠGor don
Ġtull puna
Ġtupuy pi
bach o
ĠBat ista
Ġtaru kam
Ġho qarisqa
olu teca
Ash aninka
ĠMed rano
Edi ciÃ³n
Edi torial
ĠkÃ« nÃ¶
Ġqhas qun
Ġchaqn asqa
Uq hu
ĠRUNA KUNA
Ġrec u
iwi cha
ĠDim ukrata
Son ene
Ġqel qan
ĠAstawan qa
Ġderechonchis kunata
Ġfinanci era
ĠSeg uro
ĠSag ra
ĠBru ce
Suwi t
ĠAch kiy
ĠChuqi wanka
ĠMara kay
bora zo
ĠRib eiro
ĠRib eralta
Ø² ÙĬØ²
unchawniyki chik
ĠCota cachi
Ġqapar inku
Ġinstitu si
ĠUrb anu
bor Ã³
Ġllip hi
ĠAlta mirano
ĠBearn pa
Ġseg Ãºn
Ġqusan wan
umuy ku
Ġrikukuq pi
Î¿Î» Î¹ÏĦ
Ġmillma manta
Riq sisqa
æĸ ĩ
Ġwaran im
ĠHir oshima
ĠUta h
QH ALLA
Ġkansillir nin
Mel gar
Ġsusya lismu
ĠLatina pi
Ġkuk ata
ĠAfgan istÃ¡n
Ãĳo qayku
Ġovej as
Ġkunris ista
Pach antin
ĠHei delberg
alliy kuq
Ġtur ri
Wayta ra
ĠCop pola
ĠAwqanakuy pi
äº ¬
Ġrunamasin wan
Ġayninakuy qa
Ġism uchiq
Ġisraeli tas
ĠMishi ka
CÃ¡ ceres
Ġperi Ã³dico
ĠEt Ã©n
ĠBorg es
ĠCham ber
ĠAlban ya
ĠApo calipsis
ĠDoro thy
ĠDemok ra
ĠDemok rata
Ġofficina le
Ġofficina lis
unde e
ĠAve llaneda
ĠFac undo
ĠEsta du
Ġsimp li
num ya
ĠAcade mia
ĠKans illir
Sala manca
Chaqa llu
MS M
ĠAchu ar
Ġasinda du
ĠErnes t
Bia ÅĤ
Coni bo
ĠWayu pata
Ġdif teria
ĠAntar tika
Awri ki
Gil berto
hs unqu
ĠMÃ¼ ller
liff e
ĠTian jin
ĠMaximi liano
Ġqul qi
Hill urina
Hech os
Ġqum utu
Agus tÃŃn
ttin gen
ĠKampi una
ĠNÃº Ã±ez
áĥĲáĥł áĥ
ĠLitt le
miran te
Frances co
Waskh aqucha
ĠÅļ lÄħ
ĠPapan dreou
anqayuq Ã±am
ĠGand hi
ĠVillan ueva
Ġcunda dukuna
ĠOffi ce
ĠOcci den
Ġpuraq manta
Ġpod cas
Ranun culus
Ġtradis yunal
èª ŀ
Hypo chaeris
Ġsuer te
uytura hu
ĠChukuy tu
ĠEmpal me
Ġdesensi bili
QHALLA LLAJ
! ,
) /
) ")
) ),
. /
. âĢĿ
2 31
9 50
= =
? Â»
A us
A re
A rika
A hina
A lis
A ixin
B ill
B ab
B ag
B ÃŃo
C astilla
C ro
C omm
C uen
D or
D ac
D il
E ver
E uro
E liodoro
E CUARUNARI
E uphor
F ir
G ana
G ary
I o
I z
I sh
I daho
J ay
J ob
K ina
K ull
K ala
K untu
K ampa
K uraq
K ulta
K ambuya
K ankallu
L istritu
L uz
M uri
M apa
M et
M era
M yr
N ur
N aran
N abÃ³n
O L
O c
O eno
O ax
P ri
P urun
P oli
P rimera
Q uwi
Q imis
Q atiq
Q uebec
S O
S uk
S anku
S ing
S isa
S huk
S Ã¢n
S enna
S awkari
T en
T os
T has
T aya
T aypi
T ech
U qa
U ganda
V incent
W aru
Y ang
Y ork
Y ampara
Z ona
] :
_ (
a ha
a hu
b ant
c asa
c uen
c uer
d zi
d ze
d caya
e lli
f ra
g uy
g res
g ate
g omer
i tan
i chin
j ano
j aqi
j Ã¸
k kuna
k araq
l ene
m ull
m ona
n st
o h
o ka
p ru
q ga
r d
r or
r Ã¡n
r Ã«
s inki
s tyle
t ya
t Ã³
t isa
t rand
v ul
v illos
w ispa
x yl
y lo
y cota
z el
° æĸ
¼ ĭ
É Ķ
Ñ ĳ
Ñ ĺ
× Ĺ
× Ł
Ø ·
à ¼ĭ
å ¾
æ µ·
Ġ Ì
Ġ ë
Ġ illan
Ġ âĨĴ
ģ Ã³d
an xi
an chari
ta g
qa pi
qa la
ch ys
ch uqu
ll ku
ll ik
ll aspa
un kuy
un ca
ay kunapi
ay kuq
pi c
pi lli
in ya
aq kunaq
aq wiy
aq wiq
Ġk B
Ġk ul
Ġk isa
Ġk ub
Ġk haynata
una wan
is ol
is lati
mi k
mi yap
Ġs anka
Ġs ano
Ġp ruw
Ġp es
Ġp wi
Ġp anaqa
Ġp resiÃ³n
ti v
ti qu
ti ons
ti cia
ti mes
Ġll ax
ri ku
ri Ã¡n
ri et
ri arte
man tÃ¡
Ġh ir
Ġh ala
ya gu
cha kra
pa t
pa Ã±
isqa pas
Ġllaqta kama
Ġllaqta chaq
lla w
lla gua
lla tanka
Ġn os
Ġn um
Ġn illantaq
uk llan
uk anas
ka chun
Ġq ita
tu dio
Ġka chasqa
Ġka chis
ĠP ullu
ĠP anu
ĠP olÃŃtica
Ġnisqa tas
us ÃŃ
us ca
us hu
us uwa
ra te
ra kim
ki a
ki o
ki chiq
ĠA T
ĠA mund
Ġch ikin
Ġch uqi
imi y
Ġma china
Ġma chun
Ġma pudungun
ĠC uri
ĠC aliforni
ĠS it
ĠS tal
ĠS amaypata
Ġr os
Ġd ul
Ġhuk ninta
Ġhuk kaq
am Ã©rica
ap unku
uy ru
ĠM ina
ĠM anku
ur go
Ġm uya
ul al
uq ya
on ey
Ġmama manta
Ġa pi
Ġa gua
Ġa Ã±o
Ġri kunqaku
ĠÃ± iy
ill and
Ġsuyu kunaqa
Ġsuyu kunam
chi a
chi li
chi chkan
Ġpa wa
Ġpa llan
Ġpa chayuq
Ġki llam
ĠK anmi
ĠK IM
ĠK omunismo
ĠK iyaqa
en burg
ĠH uq
ĠH ag
ĠH ernando
ĠH ulkan
anqa kunap
ĠL ay
ĠL ang
ĠL unq
Ġ" [
Ġsimipi ËĲ
hi liku
os h
os enses
ĠU ras
al uma
ĠQ atiq
ĠQ asaqsuyu
ĠQ apachiqa
Ġkay kunataq
Ġkay nu
ĠB ul
ĠB uli
ĠB ez
ĠB ea
ĠW oj
ĠW inisuy
ĠW aqra
ĠW right
ĠW indows
ĠI ulius
ĠCh or
ĠCh ol
ĠCh ampi
ĠCh inu
ĠCh orrillos
Ġ2 12
Ġ2 16
ĠT ull
ĠT iy
ĠT rin
ĠT utu
ĠT umi
ĠT uychi
ĠT ren
chay a
asqa y
li bre
li mes
si d
si on
Ġkarqan chu
Ġwatapi chÃ¡
Ġkan qan
Ġkan aypaq
Ġkan aykichispaq
yan anpaq
Ġt en
Ġt ec
Ġt rib
el eg
ari kuq
ari mana
ari kuspa
ari rqa
ari chisqan
kama chi
kama chiy
ĠJ unt
ĠJ amil
Ch ampa
Ch ampi
Ch oc
Ch umpi
to cha
to citos
Ġchay kunapi
ĠD ul
ĠD amas
ĠD allas
Ġqh aq
Ġqh apra
ci an
usqa y
ĠG ip
ĠG oro
ĠG ladys
ĠG rinada
awa ta
awa la
ĠY e
ĠY i
ĠY ata
ĠY aman
Ġqillqa kunaqa
Ã¡ k
Ġta mpu
ws tone
Ġ19 1
Ġ19 2
om um
Ġas han
Ġas tay
Ġru p
Ġru tu
ip er
ip hasa
Ġu hupi
Ġu gru
ach el
ro c
ro xyl
Ġrunakuna mantaqa
di ra
ĠwaÃ± unay
Ġyu raqta
Ġkaq pata
Ġkaq tinmi
sqa ta
kan apaq
ĠN is
ĠN di
Ġmun aqtin
tam p
tam bul
chis manta
chis taq
pu yuq
Ġpacha pim
Ġpacha manmi
ĠAn dy
ĠAn tÃ¡r
Ġall illamanta
ĠE llen
co y
Ġtu ris
Ġtu pun
ik su
Ġqallar inmi
ĠF u
ĠF ay
ĠF uku
um uch
Ġ3 16
Ġ3 29
Ġ3 21
Ġ3 45
ol eta
te z
hu ang
hu alpa
Ġwan uch
Ġkiti llip
Ġwi kipidiya
Ġmay lla
pay an
Ġj ata
unchaw ninku
ĠSan tana
ĠSan tÃŃ
ĠV ej
ĠV ela
uti zaq
Ġima kunam
Ġima mayta
ull qa
ull pina
br es
br ero
ĠMa es
Ġqucha qa
ani ka
ani yuq
Ġl ista
na vaca
aspa taq
gu ana
Ġallin nin
Ġallin chasqa
Ġallin puni
Ġallin punim
Ġrimay si
Ġrimay niyuq
Ġrimay kunapiqa
Ġin forma
ĠMar ley
ĠChay mantam
ĠChay wanqa
Ãĳ uqaqa
vi al
Ġc ama
Ġc las
Ġc alle
aynin piqa
aynin rayku
ĠIn du
Ġra imondi
de m
iti p
anku pas
Ġrur Ã«
Ġurqu kunata
ĠO NU
achay oq
uni on
ut una
Ġkawsay niyoq
maq lluq
Ġuy aq
Ġkuti china
Ġkuti muy
Ġwarmi kunaqa
ĠDi ck
iw asi
Ġiskay ninku
Ġyacha kuyta
Ġkar ru
Ġpay kunapa
kus panmi
ĠChi p
kunamanta taq
ph in
ph us
ph anti
Ġwasi kunaqa
Ġwasi kunatam
Ãº sica
ĠRo tterdam
ĠRo uge
Ġpar tes
ec ciÃ³n
Wi dyu
ĠWikipidiya piqa
San dia
18 5
18 6
18 32
18 88
18 81
18 61
18 68
18 62
et Ãº
ĠRi kuy
aran ya
chus pa
Ġtaki ta
Ġni ray
Ġni kurqan
Ġni tinmi
ber si
Ġriku rim
Ġriku chikuy
Ġriku chinku
za do
cia miento
Ġmus k
Ġmus p
ĠAl en
ĠAl do
ĠAr b
Ġkamay nin
aqa kuynin
Ġla kachu
Ġkawsaq kunaqa
Ġway ay
Ġway tam
Ġhanaq pi
Ġhanaq pachapi
Ġmit ma
Ġmit maq
isqan mi
ĠWa mani
sqan ku
pin as
kunapaq taq
ĠPa ka
Ġkus h
ja iki
ayki chik
Ġf o
Ġf ab
Ġf und
Al ban
ey kuna
Ġqillqaq ninkuna
Ġpusaq pas
ĠLa dy
Ġtar pu
Ġ15 6
Ġ7 30
ĠMan zan
Ġqillqasqa kunata
Ġkilla ta
ern ame
ĠiÃ± isqan
ĠiÃ± irqan
15 3
chÃ¡ y
ej or
12 3
Ġ17 8
Ġ17 80
Ġ17 97
17 2
17 5
chisqa qa
gen o
ĠKi ru
ĠMi ray
16 7
ob la
niy qa
niy manta
Ġumalliq man
Ġumalliq ninta
Ġumalliq ninkuna
Ġap ostoles
14 3
14 5
ĠAma z
Is lay
13 4
Ġyupay chanapaq
Ġyaku man
Ġyaku taqa
Ġuywa kunapi
raq chÃ¡
ĠHu ata
Ġanta kuyu
Ġg ri
Ġo ctubre
Ġ12 3
Ġ12 8
ita ine
Ġ14 4
Ġ14 00
Ġchi riy
unchay pin
Ri kuy
vo ia
ĠRe ino
Ġkasqan taqa
ĠhuÃ± ukuy
ĠCo ok
Ġsaq ip
Ġ31 1
ĠAy ar
ĠAy ninakuy
ĠWay aramirin
Ġph at
Ġqan mi
Ġtuku kuspa
bi da
Ġrunas manta
kichis pas
ĠMo llo
ĠMo desto
ĠSi ca
ĠSi pawa
ĠSi kuwani
Ġ13 9
50 8
puni chu
tuwa ta
Ġ20 20
ĠFran ce
Ġwaq lliq
Ġtiy aynin
Ġen vi
aku rqa
Ġallpa kunata
muq tin
isi yu
Ġunquy ninkunamanta
ĠÃĳ AN
Ġsapa chaq
aqu ina
zo a
zo g
ĠMari an
Ġukhu pipas
ĠWan su
ck en
La ura
uchu muy
var isto
Li ber
Li toral
mani ego
ĠPas to
ĠPas tor
ĠPas taza
Ġkash aqtinmi
Ġkas ukuy
Man chester
Ġpaqari rqa
ĠHuk pitaq
ĠNi eva
ĠNi chol
ĠSa d
ĠSa voia
ĠSa maniego
kusqan kumanta
Ġv is
28 5
28 7
ĠMon toya
27 8
Ġwillay pi
Ġwillay kun
Ġwillay kuykuna
Ġwaqa chi
up si
up ha
Kuyu chisqa
Ġchaski rqa
ish pa
say wa
Ġ24 6
24 1
24 7
âĢİ ;
26 9
Ġruran anpaq
Ġchin chanpi
ampi sa
ĠQillqa m
ĠMana taqmi
29 8
29 9
Ġyuyay chasqan
Ġmuyu m
Way as
Ð° Ñħ
Ġal may
Ġal kul
Ġ30 8
ry s
ong s
ĠArhintina pipas
Ġyanap asqan
23 5
Ma in
Ġwaki llan
ĠPacha ta
ullu manta
arin aqucha
eni g
eni ente
22 2
ĠÎ Ĵ
for mes
ĠAm b
ĠAm borÃ³
ĠSo fÃŃa
tr ana
tr Ã¡n
Ġjina llataq
ĠYaw ri
Ġsuq tantin
Ġpin winu
ĠAle man
Ġ29 1
Ġnir ka
cas te
Ġcon cesi
Mi chigan
ĠPh aqcha
ras er
Ġqhari wan
ub ut
Î¿ ÏĨ
Ima raykun
ĠmaÃ±a ku
ĠiÃ±iy kamaqa
ĠSh ari
hay k
mar k
Ã« ru
uÃ±i china
Ġsuyun si
ĠÃ±a Ã±
ĠQu llan
lati r
ĠEn tre
ĠBa ca
ĠKama chikuy
ĠCon do
chun mi
Ġyuy ana
Ġyuy ayta
Ġyuy aris
ĠJesus pi
ĠCas cales
ĠCas imiro
Ġmar kan
ok ra
Ġof ren
Ġphi Ã±
Ġse llo
Ġmaqanakuy mi
Ġruway chis
ven io
Co ordinadora
Ġvi aj
ans k
ans ing
ord eleg
Ġapa chin
ĠSil v
36 5
Ġkamachiq ninkuna
Ġqispi chin
Ġqispi kusqa
ĠMor ena
ĠMor elos
Ġkawsaynin qa
Ġkawsaynin kuwan
cul tura
De uterono
dal usiya
ĠÃ±an kunata
ĠÃ±an ninta
May pitaq
Qull q
chakuy ninta
ĠhuÃ±una kuspa
ĠNo v
ĠNo vo
ĠNo ord
ĠQui lla
Ġsimin chik
ĠHo od
ampu ma
à¦ °
waq chis
Ð½ Ð°
Ġhur wat
ush ka
AS I
akun anta
Anta wa
Ġwaw ayuq
ulo use
Ġqhe payta
ĠRos en
Ġkamachin anpaq
Ġmasi chakun
ĠKar tul
Ġunan chaspa
umb ay
Ġllap anmi
Ġchayam urqan
Ti yupunti
ĠVilla zÃ³n
Ġtin kisqa
ĠTar puy
kurqa m
chasqan kuna
ykichis pas
ĠRus aryu
ĠRus sell
Ġrura kunanta
Ġpapa qa
Ġpapa kunata
ĠwaÃ±uch inkichu
Ġtaw ka
Ġwanku ri
Ġ' ''
ĠHar t
ĠHar ris
Ġtiksi pusqa
Ġsas achay
Î» Î»
ren ta
ren ce
Ġapam u
Ġruwasqan kuta
Ġqara p
Ġkachi chaq
Ġpinchikilla wan
Ġtullu p
bal d
Ã§ Ã£o
Ġno qan
Ġwir riy
Ġwir asapa
Ġhata rispa
au te
Ġchurin ta
ĠLL aqta
Ġwapsi wan
Ġchaskin an
ĠiÃ±uku p
rich kaq
lay o
lay as
ĠTa ip
ĠTa kin
Ġqarq on
ĠAllpa mayu
eq ha
ĠBel fast
Mishiku pi
con trib
Ġrunan kuna
Ġapayka cha
kush anku
Ġmira chispa
ĠGer onimi
Ġ36 1
Ġ36 2
ĠAugus te
Ġdere chuyuq
Ġuyari yta
Ġqolqe manta
Ba utista
Pas siflora
Ġrik tur
No ord
ĠChurinkuna ËĲ
Îµ Î¯Î±
ĠiÃ±u manta
ĠKitu pi
Tar puy
unda tion
Uy q
ĠMe di
ĠGo ya
mb ay
Ġkamaq illqan
ĠVill egas
Ġpachata pis
Ġmask has
Ø± ÙĬ
ĠCl ar
ĠWatimala pa
Ġtiyay kuy
Ġsuy k
ĠMu ga
ĠMu hammad
Ġkhuya paya
ĠÃ±oqa ta
ĠPaul ina
Qan tu
Ġrayku pas
ji to
ĠHuan cayo
Ġmitru manta
Ġsal va
Ġà¤ µ
ĠBan ladish
ĠBiblia manta
mer son
ĠAwstral yapi
ĠCH UNKA
wari may
Ġmiray kuq
EN TO
Ġz inc
ransis ku
ĠKap chiq
Ġsaqra qa
Ger manu
Ġuya puran
Mis ki
Ru warqa
ĠCons tantin
Mag allanes
Ġnuna kuna
Ġ× Ķ
Ġkiki ykita
Ġnan ayta
Ġchaymantataq si
Iman aqtinmi
iqtay niyki
Ġmasin kunawan
ĠAran go
iqta ku
rom pe
Ġmamay ki
Universi ty
chk aspan
Ġruwaq qa
ON IE
Vi la
á» ĩ
á» į
á» ĳ
ĠSab ina
ĠChe ca
SeÃ±or nÃŃy
ĠOre gon
Ġpachaykamay pi
Sara kuru
Ġqata sqa
chupa llas
ĠIcha pas
ĠPil Ã³n
Ġpl astiku
ĠVall ecas
iro bi
ĠAlexand ra
Ġyuri chin
Ġniw arqan
ĠUs yan
Ġtusuy kuna
Ġpusaqnin pas
Ġmisti kunapaq
Ġ(? ).
ÆŁ n
ĠNeg rete
uys ka
ĠKus kan
ĠWaki china
ĠIspiritu p
ĠQullaw pi
Ġvirus manta
vis or
Ach kiy
ĠWank ayuq
ĠFunda ciÃ³n
Bibli Ã¡n
qhi paq
ĠApa che
Chacha kuma
Bra bant
Ġher manos
ĠGil bert
ĠMill uni
ĠElis a
Qalla wa
Ġmiryu kunap
Ġpuru m
uskiy kurqan
ĠRik tur
Mam uriy
Ver b
fer encia
ĠIt hiyupya
Ġsinto ma
km insuyu
ĠBre men
forma t
Ġchakin pi
ello wstone
Wil helm
ĠKin wa
tec ciÃ³n
Ġputu m
Ġkhankiq mi
Bel isario
Ġsit wa
Kas ma
ĠAnqas qucha
Ġyupaychan ki
Ġcham qaspa
Icha pas
Puq uqwata
Ste phen
Ġsuchuq kuna
Ġchu pan
ĠSak isili
Ġlay am
ond Ã³n
à¥Ģ )
Ah us
At lÃ¡n
ĠAla bama
ĠWaqay pampa
ĠReserva da
Ġchaka kuq
Anqas qucha
nina kunapaq
sir bya
Ġ{ \\
ĠsuÃ±ay kuna
Ġapamusqa m
inqu irÃ¡
Ġsami q
ĠSatan as
Ġwakllanwata kuna
ĠSik sik
ĠSag rado
Ġpatron anmi
ĠDak ar
ĠÃ±aupaq ta
ft ware
ĠWaqa q
bora h
Ġshina llatak
Ġkhuy aq
à± ģ
ĠBet ty
ĠGib son
ĠaÃ±aw kunap
ĠPukllay kamachiq
Ġcheqa mpuni
ĠPet r
ĠMuna ku
Ġnillarqan taq
Ke vin
Ġqur wara
ĠÃ±akÊ¼ ariy
Ġpala br
ĠValen tÃŃn
Ġkashas qan
ĠYakuma manta
Ġhas ut
Ġurpi cha
Ġusus in
ĠkÊ¼acha puni
Kanta rawi
QH APAQ
kie wicz
ĠIv Ã¡n
ĠSama ria
ĠLaur el
Ġllaw t
ĠAllqu wan
Clau de
Ġimp or
ĠSic uani
ĠĠĠĠĠĠĠĠ ĠĠĠĠĠĠĠĠ
aqya wiri
ĠFon da
Ġmusiyu m
Ben jamin
Fre derick
ĠLuri gancho
ĠAnder son
bero ameri
Wama chuku
Parya qaqa
ĠSalom Ã³n
ĠGir Ã³n
åľ °æĸ
ĠEcon omÃŃa
Ġinkum inda
Ant Ã³nio
åŃ Ĳ
Ġchara pa
Ġtecn ologia
ĠAnda huay
ĠKich warimay
Ġcir ca
ĠSprin gs
ĠDoc um
uchin illa
ĠCorona do
ĠjaykÊ¼ aj
Quni bu
Vall egrande
Ġmel ano
ĠFron tera
Ġistu dya
baja dores
ĠPantan al
Ġllasa tura
Ġpats an
ĠWiti chi
ĠEsqui vel
ĠOcta vio
bos ch
ĠEmp res
Ġcab allo
ĠInstitu te
æ² »
mampi ru
Ġcara jo
Thay suyu
ĠOllantay tambo
ĠindÃŃgen a
ĠEngel s
Ãģn gel
ĠTesal onic
ĠHilde brandt
Ġkunwin tupi
Ġinsiklupi diya
åŁ º
ĠCaran gas
Ġdim ukratiya
ĠRober ts
zequi el
Ġiliktr unta
Villar rica
Ã¡lis is
Ã³g icos
ĠRankin gs
QuÃ© chua
Ð¸Ñħ Ð°
ĠIkuwa tur
ambor ondÃ³n
display style
Oeno thera
gomer y
ģÃ³d Åº
times tamp
Ġkachis apa
Ġashan inka
ĠSantÃŃ sima
uchumuy la
Ġconcesi on
contrib utor
ONIE D
åľ°æĸ ¹
) |
- ),
. ),
2 19
2 17
3 20
3 25
3 80
4 10
4 38
4 89
5 60
5 35
8 50
A mpu
A talaya
A guas
A cade
A ykili
A rinillas
B ena
B ras
B aba
C ur
C risto
C ambridge
C avia
D I
D ol
E A
E loy
F il
F ili
G E
G or
G ui
G ene
H ind
H aya
H umboldt
H istoria
I spa
I raq
J un
K ana
K iya
K ing
K onstantinos
L ac
L uigi
M F
M anka
M illay
M ita
M ANA
O xford
P AN
P anpa
P aqcha
Q in
Q incha
Q hawan
Q huya
Q untumasa
R h
R uma
R aphi
R uqyay
S z
S aqa
S atipu
S aqapampa
S amaypata
T iw
T ambo
T awqa
U ran
V an
V or
V oi
W u
W araqu
W itichi
Y uy
Z A
Z ac
a co
b ani
b ac
c la
c ens
c cio
c tos
c oro
e um
e ber
e dad
e mas
f el
f Ã¡
f indi
g ayki
h chu
h indi
i kunata
i pampa
i llam
i paj
i chikun
k aspi
l dim
m uch
m ey
n at
o th
p anakuna
p terus
q ing
r ara
s to
s um
t che
t ukun
u ay
u al
u kunapaq
u bi
u tampu
w us
w on
x e
x on
y ri
y niyuq
z ab
~ ~
¦ æ
Å ©
Æ ¡
Ö °
Ö Ģ
á ĭ
â ²
å ı
è ¦
é ģ
Ġ |
Ġ ara
Ġ genus
Ġ ]]
Ġ Å¡
ľ ì
an cay
ta spa
ch ÃŃ
ch uki
ch istan
ll arqanku
ll aykichis
pi tu
in hi
in ho
in osa
in naq
Ġk e
is ch
is uy
ma cha
ma il
ma rin
as aki
ar ana
ar ÃŃas
mi yun
mi llin
Ġs el
Ġs ikin
Ġs arata
Ġs iste
wa ku
wa tana
Ġp uliti
Ġp ub
Ġp Ã«
Ġp Ã¤
Ġp rim
Ġp df
ti an
ti ch
ti tuy
Ġll u
ri r
ri li
ku mi
Ġh ig
Ġh awk
Ġh ttp
ya w
pa taq
pa lidad
Ã± urpa
Ã± achÃ¡
lla Ã±am
Ġn om
Ġn eg
Ġn uqayku
uk o
uk ranya
ka wan
Ġsu ri
Ġsu ce
Ġq uku
tu man
tu tawan
Ġka llantaq
ĠP H
ĠP iq
ĠP uÃ±
ĠP rus
ĠP eg
ĠP ui
ĠP eri
ĠP apas
ĠP oly
ĠP antaleÃ³n
us kara
wan Ã±a
ki kunata
ki pe
ĠA B
ĠA pi
ĠA lt
ĠA gen
ĠA siya
ĠA NA
ĠA lia
ĠA qui
ĠA pasa
Ġch ha
Ġch utu
Ġma sa
Ġma mantaq
ĠC Ã©
ĠC eli
ĠC evallos
ĠC urahuara
ĠS ÃŃ
ĠS tro
ĠS yl
ĠS eymour
ĠS armiento
Ġwata Ã±am
Ġr aq
Ġr isqan
Ġd inÃ©
Ġhuk aq
Ġhuk man
Ġhuk kunata
am uq
am on
ap ka
uy wan
ĠM ariy
ĠM ink
ĠM esi
ruw i
Ġm etro
ul fo
Ġllaqtapi wan
uq yan
on t
Ġmama pacha
nin mantam
nin pim
Ġa ku
Ġa tu
Ġa do
Ġa Ã±a
Ġri chkani
Ġruna cham
ill ones
er qan
chi to
chi way
Ġpa ch
Ġpa llay
ĠK asti
ĠK unka
pas yun
ist in
ist er
en tina
en ne
en guas
ĠH orn
ĠL um
ĠL ata
ĠL uku
ĠL ug
ĠL anda
ĠL uigi
aw tista
os os
ĠU ya
ĠU si
ĠU ray
ĠU go
ĠU reta
ĠQ as
ĠQ ina
ĠQ ipa
ĠQ uncha
Ġkay chu
Ġkay kunan
ĠB un
ĠB ey
arqan taqmi
ĠW ayaqacha
ĠW inston
Ġpruwinsya wan
ĠR at
ĠR uma
ĠR aqch
ĠI ra
ĠI ris
ĠI MA
ĠI tier
kun naq
at una
at ecas
qu est
ĠCh hu
ĠCh unku
ĠCh ing
ĠCh eng
Ġ2 28
ana caste
chu pam
chu pampa
âĢ ĭ
ĠT ob
ĠT ic
ĠT ub
ĠT au
ĠT iqu
ĠT ulkan
ĠT apaqari
Ġya la
Ġya pasqan
Ġya payta
chay nin
li os
Ġsuti kunatam
ĠPi likula
Ġkan pas
Ġkan kuchu
Ġkan chari
kunata wanpas
el y
Ġman ukuy
Ġman apunin
ari Ã±a
ari chiy
ari wana
kama chu
kama sqa
ĠJ allu
Ch hi
Ch ini
Ch ad
Ch ristoph
Ch ulumani
to q
Ġchay asqa
ĠD um
ĠD ae
ĠD esi
ĠD etroit
Ġqh es
uri rqan
ci folia
ci embre
ci mento
ĠG am
ĠG ame
ĠG rana
ĠY anaq
ĠY asuni
Ġqillqa murqan
Ġta mbi
ÃŃ bal
Ġas uka
") )
ip uni
Ġu m
ach en
ach asqa
ach aspa
ro g
Ġay riwa
ni r
ni yu
ni ka
di cion
ĠwaÃ± unku
Ġkaq kunapaq
Ġkaq niyoq
19 1
all may
kan d
ray kus
Ġllamk aq
Ġmana taj
ĠN abÃ³n
ĠN ancy
chis unkichis
Ġmi kunata
Ġmi china
re i
kay nin
Ã© la
Ã© ano
Ã© tica
Ġpacha tapas
Ġpacha kchÃ¡
ĠAn cÃ³n
Ġall ita
Ġall iymanta
ĠE lli
ĠE AF
llu kuy
co u
co lla
co unty
Ġti Ã±iq
Ġtu pan
Ġtu ber
tan islao
uch quy
uch kaq
ik lita
Ġqallar inan
Ġqallar isqanmanta
ĠF ish
um o
ons on
chik el
ara je
ara chupam
Ġ3 70
Ġ3 35
Ġ3 49
Ġ3 48
Ġ3 56
inki yuq
ha b
hu as
hu ana
Ġqallarisqa ku
Ġwi lan
Ġwi chari
llan o
llan paq
llan manmi
apuy ta
Ġmay lli
Ġmay pim
Ġmay manchus
pay ana
pay aku
Ġj an
Ġj aq
Ġkama kuy
unchaw si
Ġhina tapas
ĠV incent
uti y
uti yuq
ĠÃ±aw pari
lu chi
Ġur man
Ġuma ta
ĠLi ra
ĠMa ca
tun ta
tun ku
Ġl eg
Ġl ong
na lla
na manta
Ġallin cha
Ġallin ka
Ġallin taqa
ĠBuliwya manta
Ġrimay an
Ġrimay pa
Ġrimay piqa
Ġrimay kunapas
Ġrimay pipas
Ġrimay ninpi
uÃ± ita
Ġin ga
Ġin kap
Ġan nu
ĠMar ya
ĠMar shall
ĠChay taq
ĠChay wanmi
Ãĳ ak
Ãĳ uqayku
Ãĳ uqanchik
Kay piqa
ĠWi es
Ġ18 28
Ġ18 53
chin i
ĠIn dia
apa chanapaq
ak isa
Ġhay lli
ĠSimi taq
Ġyachay taqa
Ġyachay ninkunata
Ġyachay ninkuwan
pe x
de us
anku pi
Ġrur asunchik
ris yu
ĠO p
ĠO Ã±a
ĠO tomanki
ut os
Ġkawsay paq
ash all
ash ville
Ġmayu ta
Ġkuti chisqa
Ġkuti payaq
Ġraymi kuna
ter pa
Ġpus h
Ġkantun kunapi
ĠDi as
Ġiskay chunka
Ġyacha pakuy
ue go
Ġpay cha
Ġpay kunataq
lan co
pis qu
Ġati rqanku
ĠChi pa
ĠChi lla
ĠChi chi
ĠChi apas
ĠChi kusluwakya
Ġham unki
ph uyu
ph rey
Ġwasi chan
ptin chikqa
ĠLl aw
ĠLl ump
oq mi
Ġwill kan
Ġwill anku
Ãº j
ĠRo uen
ĠRo zas
qay ara
18 29
18 99
18 41
18 78
18 75
18 77
ĠRi ga
ĠRi va
ĠRi ck
Ġun ucha
An kucha
An thony
yun g
ĠMama llaktata
Ġriku rqayku
Ġmus u
Ġmus yaq
ĠAl barra
ĠAl essandro
Ġqhaw as
Ġqhaw aspaqa
kunawan si
Ġpukll asqan
unqa chu
ĠJes u
em pi
em en
em bol
aqa kuspa
yta s
Ġwatakama taq
Ġkawsaq kunapas
Chay wan
Ġway ru
Ġway llunk
Ġrima risqan
Ġrima rispa
Ġimay nam
Ġb ri
Ġb ra
pin chik
ampa Ã±a
ĠPa ine
amp ar
eg ri
Al qa
Al essandro
ĠwiÃ± achiq
ĠwiÃ± arinapaq
Ġqillqaq pa
rum pi
ĠChuq u
ĠAs tu
ĠAs sisi
Ġtar ispa
Ġ15 9
Ġ15 41
Ġwilla kunku
kurqan chu
ĠKa chu
ĠMan rique
Llaqta ymanta
war k
war awi
Ġmuna kusqan
ĠiÃ± un
ĠiÃ± ispa
ĠiÃ± inku
ĠIs anka
ĠCar bo
ĠCar val
ĠEs tre
ej i
ej ta
12 1
12 8
Ġ17 2
Ġ17 85
17 3
17 4
17 95
ariy qa
gen tillo
ank o
ĠMi caela
Chi ra
Chi pin
niy pa
niy wan
Ġumalliq pa
Ġap arqanku
aska tche
14 8
Is las
13 2
13 5
13 9
Ġyupay ta
Ġyupay manta
Ġyupay nin
Ġyaku pas
Ġuywa kunaqa
ĠHu illca
ĠHu hsunqu
ista kuna
wasi pi
ve ol
ita e
Ġ14 9
ĠZ ub
vo dato
po p
As ociaciÃ³n
As sisi
ĠhuÃ± uqa
ĠhuÃ± unpa
ing e
ing h
ĠCo llo
Ġ10 7
Ġkikin ku
Ġph uk
Ġph us
Ġtuku ptin
Ġtuku rqa
Ġtuku chirqan
bi um
Ġkaru man
ĠMo zart
ĠSi ria
Ġ13 8
Ġatin apaq
Ġatin ichu
Ġ20 7
Ġwaq rayuq
Ã©s pe
Ġqullqi pi
Ġqullqi manta
ĠKastillanu chay
llin gton
à¤ §
ĠÃĳ EQ
ĠCor re
ĠCor bacho
Ġes pÃŃritu
las t
ĠÐ ŀ
Ar n
La dislao
Ġre quest
min gton
ĠSal as
aqkuna taq
Ġkas ar
fi rio
Ġpaqari mun
25 7
Ġkaynin paq
Ġrakiy nin
Ġpisi ta
Ġpisi llata
Ġv ende
28 1
28 6
ĠNe wark
27 7
up Ã©ry
ĠAp Ã³stol
ĠKun chuku
ĠJe fferson
24 8
cho acÃ¡n
26 3
ĠMana chu
29 7
Ġyuyay pi
ora ta
Way llay
Ð° Ò
Ġal tum
Ġal ergias
Ġ25 5
Ġsuntur qa
Ġsuntur pim
ĠChili p
Ã¼ l
che lle
23 4
23 8
23 9
AY NIN
Ġwaki chinakuna
Ġchaypi taj
arin an
arin as
arin anpaq
eni da
Ġ23 9
ĠÎ §
ĠÎ ĸ
ĠBrasil niyuq
ĠUni dad
Ġtawa m
ĠAm pay
amb e
ĠPo iti
ĠCol onia
ĠCol umbus
AQ AQ
Ġruwan i
Ġruwan anta
ĠRa h
Ġllaqtan man
Ġruwa kunqa
Ġwaqay chasun
Ġsan to
tis mu
tis lava
Ġnir landis
cas tle
Ġriqsi kun
ras u
Ġkusi kuni
Ġayllun tin
ĠØ ¯
der rama
ĠiÃ±iy piqa
Ġindihina kunap
fa x
mar ÃŃa
mar Ã£es
illi an
Car rasco
ĠTo ma
ĠTo wer
uÃ±i chispa
mpa j
aspi manta
Ġsutichasqa m
Ġhuch h
ĠÃ±a Ã±ay
ĠIwrupa p
ĠVal dez
ĠPal umani
unchik mi
ĠBa ure
ĠWasi chik
Ġdi ablo
ĠCon cha
Chuq us
Ġyuy ayninta
Ġyuy arikun
ĠBer lÃŃn
ok ka
Ġnis han
tampu ku
chanapaq pas
Ġpayta qa
Ðµ Ð»
Ðµ ÐµÐ²Ð¸Ñĩ
Ġmaqanakuy piqa
yn syapi
Ki ch
ĠAra wikuna
be ll
Ð² Ð°Ð½
Ġapa kuy
ĠUrqu pi
Ġraphi qa
ĠPuk yunqa
ĠPuk llanamanta
llapa chu
Ġkurku manta
Puk arani
cel ejo
me co
ikr aqmi
ĠÃ±an kunanqa
emp re
od zi
ĠQui caÃ±a
ĠHo i
ampu pata
AS QAN
win chu
eres ina
Ġpata kuna
ĠJu anmi
Ġhucha chasqa
Ġkamachin an
Ġkamachin ta
Ġkanan manta
ĠTor ero
ĠTor no
Ġmasi ykuna
ĠMen eses
CO NA
del ete
ĠKar lus
ÏĦ Î¯
dio la
Ġchayam uspa
Ġsh um
ĠVilla vicencio
kunas ninta
achi tu
ĠHer as
ĠCrist on
mon te
ĠTar punchik
Dios ta
Ġyanapa kuq
ĠJohn ny
Ø§ Ø¨
Mo xos
à¸ Ĺ
Ġrura kurqan
ĠHar old
Con tae
Le onel
Le pidium
inapaq qa
Ġup ya
Ġup yay
isqu kuna
ima raykutaq
ĠRey kjavÃŃk
ĠTawantinsuyu ta
ren oble
Luis a
ĠpuÃ± u
ĠpuÃ± ush
Ġtullu m
Ïĥ Î±
Ïĥ Î¹ÏĤ
pur tugal
Ġhata rin
dis on
Ġtakin mi
Ur banu
Ã³ni cas
Ara pa
of ÃŃa
Ġhu qarisqa
ĠCom unal
Wawa kunapa
ĠTur ner
ĠPro ven
Ø¯ ÛĮ
kuptin ku
ĠAll qa
Ġinlisya p
Ġinlisya ta
ĠTh apay
Cor nelio
tri dor
Ġcas ar
gn er
gn um
Ġwatan kupi
No v
No vial
ĠCama rap
Ġkamachina ta
uwi chu
Ġkamachisqan man
Ġmayqin kunapichus
pen cer
Tar aputu
ĠSar gentillo
Ġawqa kuna
ĠKan sai
Ġth uni
Chaymanta pacha
Ġchinka pun
chirqa ku
ĠSalvador pi
kuni chu
Ġmunasqa yki
Uni ted
Ġqos qa
ĠAnd inos
ĠYay aq
kichik mi
Bi dens
Sir ya
allan taqmi
ĠVer des
Ġkunti man
ex ic
Ġqon qa
ech ea
Ġruntu cha
âĢĶ Â¿
Ġurma muq
Ġà¤ ª
Ġà¤ ¸
Kal alit
ĠRegi one
niq pi
Ïħ Î¼
Ã¡r cel
sul utÃ¡n
Ġpru tin
ĠGa i
Ġsupay kunata
ĠIlanda pi
allta yuq
Ġllamp Ê¼u
aptin pas
Ġatiq chu
Ġachkiy pa
gon kin
Ġllimphi yuqmi
ĠÃĳaw in
ess and
Was kaqucha
ĠMis yunkuna
AM P
Suy t
cti vo
à® ¾
ĠPin illos
ĠKap oor
Î³ Î³
Ġyaw irka
Ð¼ Ð¸ÑĢ
chinqa ku
ĠLar ra
Mis souri
Ġtaq i
Juli a
Ġsasa lla
ĠKur wa
Ġqaqa ta
ĠChanta pas
Iman aqtintaq
ĠQarwa qa
Ġmasin kunapaq
Ġwiraqucha kunap
kuchkan mi
Ġrurun kunaqa
Ġdyus pi
ĠChina pa
ĠAta w
ĠAta kami
Ġmunaq qa
ĠwaÃ±uchirqan ku
Ġwatu kuq
vil ca
KaÃ± ina
ĠIsrael pa
ĠYACH ACH
Gen tiana
ĠYa uyos
Ġphuyu pi
Ġsis ayuq
ĠChaku pi
aque tÃ¡
Ġriqsinchik chu
Ġpisiya chin
pal ca
ĠAntawaylla cha
ĠSusya ldim
ĠIsi boro
tic s
Ġsunqun pi
ĠMacha chi
ĠMacha la
Ġyachachisqa yki
warqan ki
warqan chis
Ġkacham urqan
Ġkacham usqan
Val paraÃŃso
pul aku
ĠNikarawa p
puri kunanchikpaq
Ġqhawariy nin
Ġperu vi
ariwan akuna
ĠMois esqa
SI K
Ãģ lvaro
Ġuni bersi
Ġwaway oq
Ġajina manta
Ã¬ nh
Ġmunaynin wan
Ġsanampa kunata
ĠKe vin
ĠBri tan
ĠBri tanya
Ġhor as
ĠDal ÃŃ
ĠGas par
Muyu riq
Wank asanku
ĠPac ari
Ã¼r gen
Ã¼r nberg
the ria
Ġnac e
Ġtika kunata
arak mb
Ġyuyaynin kuwan
ĠWata pi
ĠDor tmund
Ġsinto masqa
ĠPen h
ĠSura kachi
ĠNas cimento
ĠthuÃ±i chirqan
ĠGor riti
ĠÐĲ Ð»Ðµ
Ġdos is
Ġrikuchi rin
ĠWaylla marka
Uchuy lla
ĠIndepen diente
Cara cas
Ex odus
Ex upÃ©ry
Wall qanqa
bay op
à§ ģ
chkaspa qa
Ġparti ci
Ġparti dum
Ġyakum uksi
ĠNico la
Ġ% ).
Uch uk
Ġaka tanqa
ĠAla juela
iqui le
Hen ri
uras nu
Gra u
Kuta wasi
ĠSun iqira
ĠBis marck
ucar Ã¡
ĠPÃ¡ ez
Ġaman qay
Ġinfec ciÃ³n
ĠÐľ Ð¸ÑħÐ°
Tum ina
alta ciÃ³n
ĠtÃ©c ni
ĠTuk manmanta
Ġwiki kunapi
ĠÃ±aupa j
AK LLANA
ĠKuti pa
ĠVillar rica
Rus aryu
Such uqkuna
gl Ã©s
ĠPill aru
ĠAni ceto
ĠChin ch
ĠsutÊ¼ ita
Ġaypa lla
Ġuyaris haspa
Kaws asqan
Lim Ã³n
Lim burg
Qal amarka
cur so
ĠBas el
ĠBla ir
pti embre
Ol ga
Ġgobi ern
Chin ch
ĠAbel ardo
ĠClau dio
Ã³d zt
ĠCarta gena
Ġminuy wa
Ġminuy wanqa
cara ba
ĠApuy ay
ĠXX III
Ros ario
Ġjatu chaq
Sap anka
Ġismuy kuy
Ġwisn up
ĠIndÃŃgen a
Ġwal iq
Ġimamanta chus
Kita ra
Tab aconas
ĠPres ley
Rak hu
esal pi
boro ugh
Ġnasyun kuna
wiÃ±ay paq
Ú© ÛĮ
pir wa
ĠNati onal
à¹ Į
Fer enc
Tal ara
ĠIhiptu pa
Bob by
lara ciÃ³n
Ġintra ven
Ġcristian osqa
ÏģÎ¹ ÏĥÏĦ
ĠMaw lli
ĠQill qana
ĠEv ang
ĠEast wood
Leo pardus
UC N
Abd ullah
ĠGui marÃ£es
Ġbru jo
ĠCham orro
Ġwanki lli
ĠGreen wich
sub familia
chkay ku
chal ke
ĠAur elio
Ġhuchan kunamanta
Ġsuk su
Ġshi pi
ĠBabil onia
Hip Ã³lito
Luq ma
ĠRab at
ĠAmachaq e
Ransis ku
Ġchayn ulla
ĠAbd ullah
Ġqispichiq nin
ĠReyn oso
Hum berto
ĠSall qantay
ĠLus ke
Ġmuri ra
Kami run
Ġriqsirqan kuchu
Ġregion ales
isiy ay
ĠVin ces
Llan kanuku
medi ap
ĠComunidad es
ĠThom pson
Aga ve
Prin ce
ĠRal ph
ĠTac na
ĠArro yo
ĠAlej andra
Monte video
ĠYagua chi
ĠJarami llo
Crist Ã³bal
cons in
Ġmer cados
ĠChristi e
ĠUniver sal
ĠTacu arembÃ³
ĠYapa kani
shuy paqa
Ġllapta p
Aph ru
ĠImas hikuna
ĠFis cher
ĠOdis iw
Santi waÃ±is
ucur bita
ĠQillqakamayuq ninmi
Planta go
cles i
ĠJag ger
laci er
Ġaypasqa kunapaq
Ġladon pi
Proven ce
ĠMetropoli tana
ĠCast elo
Pag arin
yp tus
chtit lan
Ġpenici lina
ĠCG TP
Ġdiscipul os
Rans ya
ĠMej illones
Ãºni or
ĠReither manmi
ĠRuwan anpaj
Norman die
ĠClu be
ĠPilat oqa
ĠRoc ÃŃo
kop je
ĠKharab aq
Seb asti
ĠKallu wata
ĠObre gÃ³n
ernamb uco
Ġpruw ynsyapi
Ġllax ta
ushu findi
ĠCaliforni api
Ġraimondi i
Bras sica
Voi vodato
rili tsa
Ġtambi Ã©n
ĠFish er
ĠAlbarra c
ĠCarval ho
askatche wan
ĠÃĳEQ E
ĠSusyaldim ukrata
ĠÐĲÐ»Ðµ ÐºÑģ
) (
, (
. )"
/ ,
2 16
2 13
2 26
3 19
3 40
9 80
< /
A Ã±a
A Ã±ay
A kas
A llinmi
A tari
A Ã±aki
A IDESEP
B ad
B ene
C le
C olo
E D
E spa
E cheandÃŃa
F e
F lo
F ern
G ali
G rand
H is
H anpi
H erto
I CA
I lik
J ama
J unt
J usto
J ules
K P
K ol
K rus
L uru
M B
M ura
M oj
N ak
N arnia
N amiwya
P aj
P uca
P yrÃ©nÃ©
Q hatu
R uk
R ip
R iti
R aqacha
S ull
S asa
S amay
S ep
S PD
T ol
T antanakuy
T unqu
T unga
T ukachi
U ta
U yay
U miÃ±a
U siyan
W ayakil
X TO
Y uqalla
a taq
b eno
c aria
c anu
c amarca
d ela
e h
e ce
f en
f re
f ini
f red
g si
h uq
h ol
i Ã±a
i kuq
i kunku
i chanapaq
j ay
j apa
k pi
k pa
k anqa
l s
l aq
l al
l Ã³n
l ayqa
l ate
n ti
n aqmi
n enqa
o Ã±i
o gle
p ukun
p lat
q ur
r Ã³
[...]
